<unk>	0
<s>	0
</s>	0
<pad>	0
▁	-3.005
、	-3.48847
。	-3.65375
の	-3.68153
年	-4.15293
)	-4.1734
(	-4.3776
は	-4.41128
・	-4.43091
に	-4.65277
を	-4.67181
が	-4.73241
月	-5.00454
で	-5.10771
▁-	-5.1949
と	-5.25321
日	-5.2769
:	-5.35018
1	-5.49809
2	-5.63167
」	-5.69979
ス	-5.70583
した	-5.72906
「	-5.81014
し	-5.81726
3	-5.8626
4	-5.97938
である	-6.03108
-	-6.0909
する	-6.09676
から	-6.10907
』	-6.13868
い	-6.14986
大	-6.22719
5	-6.23981
市	-6.24461
も	-6.27695
た	-6.28147
ア	-6.2852
7	-6.3101
ト	-6.32199
や	-6.34543
人	-6.35826
6	-6.37214
として	-6.37726
る	-6.37837
8	-6.39016
▁(	-6.39425
山	-6.40098
9	-6.40442
町	-6.41961
ク	-6.44515
『	-6.45902
ル	-6.47003
田	-6.47633
,	-6.49725
中	-6.52337
10	-6.53546
リ	-6.55262
り	-6.55806
川	-6.55897
子	-6.56209
された	-6.57418
上	-6.58011
な	-6.58862
s	-6.59276
ラ	-6.59782
ド	-6.59783
一	-6.63377
く	-6.65077
18	-6.65613
カ	-6.71799
.	-6.72082
マ	-6.73162
部	-6.73452
12	-6.74226
本	-6.74462
き	-6.78979
ロ	-6.79037
ム	-6.80313
では	-6.80339
か	-6.82375
11	-6.82795
e	-6.83616
イ	-6.83691
村	-6.84742
▁『	-6.84819
線	-6.85486
コ	-6.86084
長	-6.86389
ナ	-6.8743
者	-6.87435
S	-6.87501
国	-6.89263
名	-6.89411
て	-6.89728
駅	-6.90976
ズ	-6.91556
年に	-6.91894
タ	-6.93274
第	-6.93509
地	-6.93901
北	-6.95909
している	-6.97274
野	-6.97501
南	-6.97515
には	-6.97747
ッ	-6.97904
み	-6.99399
日本	-6.99463
エ	-7.00219
シ	-7.0049
o	-7.00561
号	-7.01244
昭和	-7.02046
下	-7.02223
生	-7.0224
分	-7.02425
して	-7.02527
家	-7.02738
ー	-7.03302
道	-7.03995
東	-7.04105
19	-7.04464
回	-7.04795
レ	-7.04967
位	-7.05316
同	-7.05882
リー	-7.06466
ミ	-7.0657
高	-7.07447
キ	-7.07648
ん	-7.07763
a	-7.08148
大学	-7.08155
フ	-7.08653
郡	-7.09126
ら	-7.09797
ン	-7.09854
この	-7.10213
y	-7.10226
P	-7.1081
原	-7.11078
A	-7.11169
西	-7.11456
内	-7.12853
オ	-7.13041
など	-7.13149
三	-7.14171
島	-7.1422
M	-7.14227
ウ	-7.14765
つ	-7.15583
区	-7.15685
行	-7.16035
B	-7.16377
前	-7.16607
社	-7.18098
学	-7.182
水	-7.18207
C	-7.19076
新	-7.19622
ノ	-7.20377
元	-7.20664
後	-7.20685
小	-7.21041
/	-7.21799
出	-7.2211
ブ	-7.22504
バ	-7.22623
立	-7.22945
15	-7.22982
17	-7.23239
サ	-7.23261
チ	-7.25241
会	-7.26399
う	-7.26574
され	-7.26927
D	-7.27321
戦	-7.28262
った	-7.28637
16	-7.28731
日に	-7.28797
その	-7.29422
ジ	-7.29701
T	-7.30038
F	-7.31784
ニ	-7.31946
されている	-7.31977
t	-7.31992
m	-7.32267
法	-7.32296
数	-7.32657
||	-7.32749
州	-7.33307
す	-7.34065
という	-7.35249
また	-7.36702
ている	-7.37024
20	-7.37206
所	-7.38044
グ	-7.38044
手	-7.38474
代	-7.38756
テ	-7.3886
G	-7.39487
される	-7.3963
L	-7.41547
パ	-7.42007
R	-7.4203
体	-7.42216
により	-7.42734
ま	-7.43022
U	-7.43207
ハ	-7.43348
n	-7.43745
木	-7.44817
平	-7.45654
平成	-7.45892
▁S	-7.46128
i	-7.46273
さ	-7.4675
より	-7.46934
お	-7.47006
王	-7.47737
メ	-7.47942
用	-7.48266
時	-7.48419
場	-7.48825
海	-7.49133
30	-7.49763
E	-7.49773
er	-7.49948
モ	-7.50133
正	-7.50398
となる	-7.51167
』(	-7.51538
0	-7.51577
放送	-7.52113
ダ	-7.52373
スト	-7.52675
プ	-7.53107
ット	-7.53484
井	-7.53999
文	-7.5424
デ	-7.54328
K	-7.54797
日本の	-7.54877
となった	-7.55442
化	-7.55448
城	-7.55562
二	-7.5565
13	-7.55792
ール	-7.55851
N	-7.56058
14	-7.56404
間	-7.56595
まで	-7.56786
曲	-7.56947
事	-7.57512
ネ	-7.57646
ティ	-7.57812
金	-7.57932
ツ	-7.57984
全	-7.58122
初	-7.58141
あ	-7.58341
科	-7.5842
じ	-7.58423
ター	-7.58499
へ	-7.58722
石	-7.58863
ない	-7.59118
ディ	-7.59498
天	-7.59538
作品	-7.59719
賞	-7.59785
l	-7.60188
め	-7.6042
方	-7.60992
え	-7.61023
▁概要	-7.61434
期	-7.61797
セ	-7.62443
語	-7.62619
神	-7.62625
ビ	-7.62682
寺	-7.62725
見	-7.63028
がある	-7.63056
ボ	-7.63318
こ	-7.63498
和	-7.63903
外	-7.6398
作	-7.6401
公	-7.64236
r	-7.64307
イン	-7.64388
橋	-7.64505
美	-7.6478
u	-7.64948
明	-7.65071
主	-7.65357
ガ	-7.6622
明治	-7.66571
▁A	-7.66934
って	-7.67276
目	-7.67686
定	-7.6845
わ	-7.68815
H	-7.69088
映画	-7.69317
による	-7.69358
p	-7.70566
性	-7.70867
現	-7.70885
〜	-7.7118
成	-7.71265
アン	-7.71324
県	-7.71577
世	-7.72085
g	-7.72241
▁B	-7.73027
b	-7.73543
ar	-7.73735
Y	-7.73907
面	-7.74474
発	-7.74911
物	-7.75256
宮	-7.7568
軍	-7.76124
合	-7.76786
バー	-7.76958
書	-7.76997
安	-7.77015
力	-7.77219
マン	-7.77296
入	-7.77326
谷	-7.7742
I	-7.77543
W	-7.77821
れ	-7.77873
▁第	-7.78047
実	-7.78099
にある	-7.78168
ため	-7.78193
機	-7.78389
!	-7.78552
研究	-7.78728
J	-7.78822
アル	-7.79298
約	-7.80024
in	-7.8032
▁P	-7.80416
松	-7.80508
O	-7.80881
25	-7.80927
en	-7.81041
ラー	-7.81085
もの	-7.81111
によって	-7.81644
21	-7.8178
ロー	-7.81791
選手	-7.82037
津	-7.82181
次	-7.82522
官	-7.83419
であり	-7.83443
V	-7.83629
▁C	-7.83687
信	-7.83858
ック	-7.84148
an	-7.8455
ラン	-7.84989
c	-7.85299
ザ	-7.85344
ベ	-7.85702
度	-7.85901
=	-7.86054
▁「	-7.86061
ヒ	-7.86212
車	-7.86251
であった	-7.86287
通	-7.86635
サン	-7.86868
局	-7.86931
al	-7.87446
22	-7.87498
女	-7.87653
光	-7.87956
東京	-7.88287
理	-7.8879
だ	-7.88918
ば	-7.89152
集	-7.89715
"	-7.89879
していた	-7.90505
重	-7.90872
or	-7.90981
ソ	-7.91984
小学校	-7.92035
形	-7.92095
その後	-7.92383
口	-7.92404
役	-7.92539
武	-7.92549
ち	-7.92772
点	-7.92876
員	-7.92982
▁M	-7.93521
24	-7.93782
馬	-7.93913
代表	-7.94051
け	-7.94236
ゴ	-7.94312
有	-7.94632
系	-7.94796
▁|	-7.94994
世界	-7.95146
式	-7.95498
▁-)	-7.96024
等	-7.96169
監督	-7.96622
的	-7.96844
ペ	-7.96898
アルバム	-7.97374
店	-7.97665
歌	-7.9775
別	-7.9779
こと	-7.97887
流	-7.98112
室	-7.98338
26	-7.9834
学校	-7.98538
h	-7.98553
w	-7.98643
種	-7.9873
白	-7.98844
無	-7.99207
旧	-7.99333
番組	-7.99488
級	-7.99636
番	-7.99669
23	-7.99758
on	-8.00097
ケ	-8.00175
リーグ	-8.00206
校	-8.00392
台	-8.00447
土	-8.00494
▁F	-8.00758
いた	-8.00821
d	-8.00879
直	-8.01111
任	-8.01133
屋	-8.01368
ピ	-8.01389
ず	-8.01497
進	-8.01554
リン	-8.01828
藤	-8.01906
プロ	-8.01926
28	-8.0215
株式会社	-8.02522
院	-8.0283
f	-8.03105
活動	-8.03191
鉄道	-8.03245
多	-8.03413
知	-8.0362
ヴィ	-8.03997
士	-8.04385
バス	-8.04467
le	-8.04553
k	-8.04612
勝	-8.04687
29	-8.04812
花	-8.04981
近	-8.05019
re	-8.05452
岡	-8.05646
不	-8.06238
音楽	-8.0639
型	-8.064
月に	-8.06541
27	-8.06553
総	-8.06647
制	-8.06695
優勝	-8.06851
アメリカ	-8.07139
ーン	-8.07153
レー	-8.07258
00	-8.07421
保	-8.07475
作曲	-8.07477
▁G	-8.0773
江	-8.07852
的な	-8.08137
ワ	-8.08169
当	-8.08402
ライ	-8.0847
～	-8.08812
テレビ	-8.08815
館	-8.09117
において	-8.09905
産	-8.09951
吉	-8.10065
国際	-8.10222
朝	-8.10665
教育	-8.10762
気	-8.11348
教	-8.11476
真	-8.11555
市立	-8.1171
話	-8.11913
ポ	-8.11925
動	-8.11929
古	-8.12313
着	-8.12565
色	-8.12702
記	-8.1318
レン	-8.1374
っ	-8.13745
ヤ	-8.13937
夫	-8.14393
、「	-8.14734
中学校	-8.14874
せ	-8.14966
への	-8.15049
にも	-8.15128
佐	-8.1562
チーム	-8.15951
工	-8.1655
沢	-8.16871
」(	-8.1689
省	-8.17292
久	-8.17347
ていた	-8.17514
広	-8.17917
十	-8.17965
▁H	-8.18074
む	-8.181
地域	-8.186
同年	-8.1928
政	-8.19446
務	-8.19808
▁D	-8.1991
開	-8.20014
および	-8.20023
父	-8.20179
とも	-8.20194
'	-8.2021
ひ	-8.20359
X	-8.20402
50	-8.20489
シーズン	-8.20719
ing	-8.20772
頭	-8.20812
側	-8.21163
th	-8.21243
とは	-8.21342
シングル	-8.21611
大会	-8.2172
義	-8.2184
太	-8.21884
路	-8.21897
コン	-8.2219
ダー	-8.2233
カー	-8.22385
版	-8.22581
現在	-8.2268
▁L	-8.22931
男	-8.2304
来	-8.23756
高等学校	-8.23827
中国	-8.23831
び	-8.23856
八	-8.23914
音	-8.2396
最	-8.24064
字	-8.24201
ホ	-8.24208
31	-8.24527
河	-8.24566
試合	-8.24606
崎	-8.24694
年から	-8.24755
でも	-8.24764
先	-8.24971
マー	-8.25195
星	-8.25363
などの	-8.25485
四	-8.25557
氏	-8.25965
再	-8.26072
尾	-8.26308
愛	-8.26348
at	-8.2712
シュ	-8.27212
開発	-8.27505
リア	-8.2754
事業	-8.28085
船	-8.28477
ヌ	-8.28774
となり	-8.28948
られた	-8.29215
五	-8.29291
それ	-8.29351
母	-8.29459
英	-8.2981
施設	-8.29846
隊	-8.30104
加	-8.30278
関	-8.30541
豊	-8.30605
すること	-8.30628
門	-8.30651
永	-8.30709
▁W	-8.30795
言	-8.31209
ch	-8.31325
後に	-8.31346
▁T	-8.3136
解	-8.3141
達	-8.3181
▁歴史	-8.31827
ギ	-8.31847
女子	-8.31851
自	-8.3206
電	-8.32095
にて	-8.32122
史	-8.32124
風	-8.32191
センター	-8.32295
万	-8.32453
堂	-8.3275
だった	-8.32835
団	-8.33073
時間	-8.33078
岩	-8.33241
権	-8.33274
対	-8.33442
中央	-8.33615
っている	-8.33657
ジェ	-8.34202
伝	-8.34218
km	-8.3422
在	-8.34397
出身	-8.34484
青	-8.34486
との	-8.34709
ゼ	-8.34821
所属	-8.35104
々	-8.35256
シー	-8.35259
歳	-8.35498
フェ	-8.35815
ナー	-8.36182
業	-8.36191
フィ	-8.36504
ぶ	-8.36766
使用	-8.36769
治	-8.36804
両	-8.36813
巻	-8.36865
ックス	-8.36919
is	-8.37246
時代	-8.37379
とする	-8.37427
x	-8.37452
ヘ	-8.37745
各	-8.37846
民	-8.3793
ドイツ	-8.38218
FC	-8.38278
戸	-8.3829
アー	-8.38348
心	-8.38568
オー	-8.38623
今	-8.38666
▁E	-8.38719
st	-8.38755
カル	-8.39
春	-8.39534
▁作詞	-8.3971
ジャ	-8.39985
▁大	-8.40039
園	-8.40189
文化	-8.40319
組	-8.40532
的に	-8.40556
楽	-8.40569
林	-8.40757
里	-8.40767
ol	-8.40973
演	-8.40993
it	-8.40996
ぎ	-8.4107
▁N	-8.41193
司	-8.42154
京	-8.42188
のみ	-8.42413
雄	-8.42729
40	-8.42874
郷	-8.43171
ソン	-8.43488
良	-8.43514
における	-8.43556
表	-8.43646
スター	-8.4399
志	-8.43995
徳	-8.44037
ベル	-8.4411
ップ	-8.44175
モン	-8.4418
現在の	-8.44248
us	-8.44477
相	-8.44628
品	-8.44634
坂	-8.44898
▁|-	-8.45057
黒	-8.45069
チェ	-8.451
ッド	-8.45342
死	-8.4539
根	-8.4541
森	-8.4542
z	-8.45451
選	-8.45458
情報	-8.45475
会社	-8.45491
社会	-8.45502
シリーズ	-8.45615
宗	-8.45754
収録	-8.46017
しかし	-8.46032
られる	-8.46054
編	-8.46193
▁日本	-8.46209
人の	-8.46296
特	-8.46318
空	-8.46332
付	-8.46379
ファ	-8.46449
グループ	-8.46482
丁目	-8.46532
出演	-8.46618
エン	-8.46664
▁O	-8.47209
都市	-8.47377
米	-8.47592
ニー	-8.47606
ri	-8.47611
et	-8.47872
クラブ	-8.479
年には	-8.48116
向	-8.4814
清	-8.48198
ど	-8.4823
デビュー	-8.4833
造	-8.48406
地方	-8.48518
Z	-8.48572
波	-8.48688
職	-8.48772
ゲーム	-8.48989
出版	-8.48997
▁経歴	-8.49275
越	-8.49389
ぐ	-8.49397
守	-8.49488
派	-8.4984
党	-8.49873
一般	-8.49941
ブル	-8.50022
師	-8.50023
アイ	-8.5006
なかった	-8.50408
住	-8.50581
条	-8.50652
サー	-8.50686
たち	-8.50833
親	-8.50935
▁of	-8.51032
)4	-8.51046
変	-8.51206
利	-8.51217
制作	-8.51477
連	-8.51874
兵	-8.51901
半	-8.51963
ね	-8.52007
族	-8.52084
よ	-8.52256
福	-8.52303
末	-8.52357
ご	-8.52479
パー	-8.52678
之	-8.52754
ジュ	-8.52805
+	-8.53048
出場	-8.5314
商	-8.53299
量	-8.53336
常	-8.53635
章	-8.53638
論	-8.53879
赤	-8.54147
げ	-8.54476
祭	-8.54642
命	-8.54702
▁J	-8.54768
%	-8.54775
賀	-8.55031
ro	-8.55058
トン	-8.55385
ビー	-8.55404
座	-8.55535
北海道	-8.55886
el	-8.55905
道路	-8.55981
よう	-8.56004
領	-8.56156
レイ	-8.56232
ろ	-8.56257
及び	-8.56316
浦	-8.56386
人物	-8.56594
千	-8.56634
画	-8.56916
大阪	-8.57014
シン	-8.57125
ルー	-8.57265
ra	-8.57302
となっている	-8.57331
されていた	-8.57336
編曲	-8.57432
倉	-8.57443
葉	-8.57625
協会	-8.57655
られ	-8.57862
修	-8.57965
発売	-8.58197
御	-8.58216
聖	-8.58271
こう	-8.58718
調	-8.58746
食	-8.58866
地区	-8.58909
伊	-8.59222
なお	-8.59447
結	-8.59631
記録	-8.59797
交	-8.59806
生まれ	-8.59866
取	-8.59986
ur	-8.60009
利用	-8.60045
es	-8.60124
公園	-8.60189
-1	-8.60243
ふ	-8.60311
▁V	-8.60491
ーズ	-8.60615
▁K	-8.6064
▁R	-8.60715
IC	-8.60768
高校	-8.60969
開催	-8.6115
意	-8.61212
蔵	-8.61359
リング	-8.6144
ハー	-8.6167
器	-8.61964
んだ	-8.62074
ロン	-8.62568
基	-8.63011
関係	-8.63288
ed	-8.63292
れた	-8.63421
友	-8.63756
使	-8.64147
都	-8.64233
エル	-8.64297
改	-8.64523
女性	-8.64763
帯	-8.64867
東京都	-8.65073
質	-8.65074
について	-8.65135
乗	-8.65273
ワー	-8.65785
素	-8.65931
2000	-8.65941
マル	-8.65961
100	-8.66083
神社	-8.66177
紀	-8.66218
コー	-8.66306
になる	-8.66371
000	-8.6641
マイ	-8.66431
建	-8.66654
京都	-8.66771
世紀	-8.66801
興	-8.66883
つの	-8.669
キャ	-8.66946
残	-8.67038
べ	-8.67238
陽	-8.67505
年代	-8.67533
若	-8.67564
教授	-8.67609
ある	-8.67994
を経て	-8.68013
ヴ	-8.68179
フランス	-8.6819
年度	-8.68221
販売	-8.68497
例	-8.68597
装	-8.68719
総合	-8.68811
渡	-8.69006
満	-8.69024
鉄	-8.69329
卒業	-8.69331
ハン	-8.69425
火	-8.69459
強	-8.7004
での	-8.70058
養	-8.70064
メンバー	-8.70281
colspan	-8.70384
しい	-8.70408
場合	-8.7067
落	-8.70802
ゲ	-8.70827
製	-8.70941
経済	-8.71072
樹	-8.71161
宝	-8.71381
類	-8.71382
夏	-8.71383
できる	-8.71476
ヴァ	-8.71518
▁沿革	-8.71563
シャ	-8.71663
タイ	-8.71692
歴	-8.71789
角	-8.71813
薬	-8.71965
選手権	-8.72005
am	-8.72052
府	-8.72183
ic	-8.72299
声	-8.72312
60	-8.7264
居	-8.72696
称	-8.72702
ント	-8.72747
人口	-8.72994
浜	-8.73016
建設	-8.73253
サッカー	-8.73326
農	-8.73334
六	-8.73491
ウェ	-8.7361
従	-8.73611
図	-8.73836
▁3	-8.73863
廃止	-8.7411
2010	-8.74231
学者	-8.74316
芸	-8.74346
属	-8.74347
クリ	-8.74354
ノー	-8.74647
技術	-8.74678
▁/	-8.7476
オン	-8.74773
退	-8.74839
身	-8.74912
製作	-8.75155
妻	-8.75244
円	-8.75585
丸	-8.75653
全国	-8.75772
CD	-8.76077
港	-8.76329
配	-8.76427
管理	-8.76539
とともに	-8.76631
ガー	-8.76662
ドル	-8.76698
ランド	-8.76703
&	-8.76742
オリンピック	-8.76744
これ	-8.76775
起	-8.76796
泉	-8.76803
チャ	-8.76892
担当	-8.76948
ニア	-8.77042
経	-8.77313
路線	-8.77317
助	-8.77398
当時	-8.77519
ジョン	-8.77691
参加	-8.77963
羽	-8.78065
企業	-8.78138
ほか	-8.78148
売	-8.78359
年まで	-8.78425
]	-8.78543
ON	-8.78546
藩	-8.7883
il	-8.7886
タイトル	-8.79094
to	-8.79097
える	-8.79235
2009	-8.79267
v	-8.79318
カン	-8.79466
トリ	-8.79506
→	-8.79547
決	-8.79617
未	-8.79756
2008	-8.79759
ラジオ	-8.79779
周	-8.79961
ユ	-8.80158
ライブ	-8.80208
ir	-8.80256
打	-8.80795
バイ	-8.80826
te	-8.80929
ゆ	-8.80982
左	-8.81028
2007	-8.81049
共	-8.81159
の一部	-8.81253
トラ	-8.81278
▁2010	-8.8136
急	-8.81407
があり	-8.81448
なく	-8.81466
撃	-8.81555
科学	-8.81565
草	-8.81583
大正	-8.81632
▁2007	-8.81665
ハイ	-8.81863
副	-8.82005
支	-8.82022
学部	-8.82151
ッチ	-8.82179
1992	-8.8242
JR	-8.82425
年間	-8.82469
グラ	-8.82486
を務めた	-8.8255
収	-8.82568
料	-8.82589
▁I	-8.82631
郎	-8.82848
2011	-8.82865
没	-8.82958
設立	-8.83122
カップ	-8.83124
池	-8.83242
増	-8.83344
プラ	-8.83402
盤	-8.83459
瀬	-8.8346
ロシア	-8.83644
ヨ	-8.83817
走	-8.83894
単	-8.83916
▁2009	-8.83978
▁2012	-8.84026
▁the	-8.84038
名称	-8.84041
応	-8.84053
香	-8.84206
▁来歴	-8.84297
ホーム	-8.84444
能	-8.84481
切	-8.84494
防	-8.84829
工業	-8.85207
▁2008	-8.85263
レス	-8.85337
そ	-8.85356
▁2011	-8.85482
2012	-8.85499
夜	-8.85585
lo	-8.85913
かつて	-8.85957
ad	-8.85989
陸	-8.86008
他	-8.861
跡	-8.86291
すると	-8.86296
竹	-8.86321
幸	-8.86509
洋	-8.86597
または	-8.86708
備	-8.86775
ジョ	-8.86791
結果	-8.86902
#	-8.87039
2006	-8.87178
▁主な	-8.87255
ード	-8.87409
育	-8.87488
テン	-8.87529
1991	-8.8769
ング	-8.87958
タン	-8.88038
スタ	-8.88108
さん	-8.88322
ay	-8.88324
秋	-8.88403
▁2016	-8.88544
入り	-8.8879
▁2014	-8.88834
as	-8.88859
兼	-8.88863
説	-8.8887
開始	-8.8899
終了	-8.89014
観	-8.89024
特別	-8.89043
▁2006	-8.89245
指定	-8.89259
un	-8.89422
介	-8.89431
題	-8.895
▁2015	-8.89514
計画	-8.89574
▁2013	-8.89757
フォー	-8.89814
ビル	-8.89868
トル	-8.89899
源	-8.89919
2002	-8.89985
艦	-8.89993
クス	-8.90079
▁2019	-8.90081
ザー	-8.90109
イタリア	-8.90163
トロ	-8.90223
鳥	-8.90233
2013	-8.9025
少	-8.90264
したが	-8.9038
右	-8.90398
記念	-8.90441
リス	-8.90507
▁2017	-8.90577
栄	-8.90603
」「	-8.90615
NHK	-8.90638
節	-8.90722
横	-8.90747
送	-8.90803
2014	-8.90906
2015	-8.90948
la	-8.9095
忠	-8.91001
異	-8.91086
遠	-8.91117
後の	-8.91202
率	-8.91228
バル	-8.91457
足	-8.9158
敗	-8.91636
ること	-8.91722
群	-8.91961
弘	-8.92108
病院	-8.92325
階	-8.92331
▁小	-8.92432
殺	-8.92458
2001	-8.92464
契約	-8.92466
典	-8.92473
選挙	-8.92509
に関する	-8.92547
▁The	-8.9278
深	-8.9285
持	-8.92963
野球	-8.93124
▁2018	-8.93213
要	-8.93239
ピー	-8.93302
に伴い	-8.93309
寄	-8.93459
1989	-8.93478
絵	-8.93585
七	-8.93655
塚	-8.93874
場所	-8.9406
英語	-8.94111
彦	-8.94162
とき	-8.94178
湖	-8.94187
阿	-8.94201
恋	-8.94225
ne	-8.94239
極	-8.94307
管	-8.94512
クラ	-8.94532
上げ	-8.94653
しており	-8.94654
45	-8.94747
鎮	-8.94929
2016	-8.95266
富	-8.95288
1987	-8.95326
材	-8.95399
になった	-8.95495
以降	-8.95521
ドラマ	-8.9553
nd	-8.95631
将	-8.9565
1980	-8.95766
35	-8.95868
好	-8.95899
続	-8.96031
転	-8.96068
断	-8.96069
病	-8.96092
ガン	-8.96095
移	-8.96124
男子	-8.96129
状	-8.96238
置	-8.96241
にかけて	-8.96381
▁2005	-8.96417
国道	-8.96424
個	-8.96475
文学	-8.96577
89	-8.96731
小説	-8.96734
ダイ	-8.96748
委員会	-8.96771
交通	-8.96787
ヶ	-8.96889
2005	-8.96996
太郎	-8.97087
事件	-8.97194
1988	-8.97207
製造	-8.97232
とした	-8.9735
と共に	-8.97371
ことを	-8.97513
いて	-8.97704
第一	-8.97759
低	-8.97777
90	-8.97841
2017	-8.97918
システム	-8.97931
プレ	-8.97977
ブラ	-8.97986
シェ	-8.98211
訳	-8.98229
客	-8.98274
反	-8.983
スポーツ	-8.98464
ベスト	-8.98465
成績	-8.98745
2019	-8.98785
ter	-8.98798
差	-8.98809
ながら	-8.98813
ことが	-8.98894
アジア	-8.99224
中心	-8.99251
日から	-8.9928
2018	-8.99282
スク	-8.99335
百	-8.9934
失	-8.99434
セル	-8.99471
建築	-8.99549
延	-8.99608
示	-8.99768
検	-8.9979
戦争	-8.99801
変更	-8.99865
の一つ	-8.99962
周辺	-8.99971
報	-9.00014
通り	-9.00042
早	-9.00249
トゥ	-9.00252
▁地理	-9.00317
li	-9.00361
経営	-9.00613
技	-9.00614
九州	-9.00626
を受け	-9.00662
80	-9.00987
クロ	-9.01003
生活	-9.01008
、『	-9.01008
格	-9.01063
漫画	-9.01157
恵	-9.01272
かい	-9.01328
段	-9.01386
▁ア	-9.01409
ており	-9.01454
運	-9.01461
セン	-9.01741
を持つ	-9.01745
?	-9.01768
取り	-9.01905
タル	-9.01927
議	-9.01959
j	-9.02186
関連	-9.02195
運営	-9.02197
仁	-9.02262
優	-9.02333
様	-9.02458
っていた	-9.02497
ia	-9.0267
モデル	-9.02858
れる	-9.02864
元年	-9.0291
さらに	-9.0297
ウィ	-9.03111
接	-9.03178
出身の	-9.03228
IN	-9.03679
.5	-9.03741
玉	-9.03843
1986	-9.03883
甲	-9.03952
イギリス	-9.03972
比	-9.04032
1999	-9.04083
多くの	-9.04084
庁	-9.04143
板	-9.04274
48	-9.04321
MA	-9.04498
▁"	-9.04508
存在	-9.04522
張	-9.04527
自動車	-9.04626
問題	-9.04634
ブリ	-9.04683
端	-9.04725
ニュー	-9.04757
秀	-9.04787
調査	-9.04855
作詞	-9.04857
設置	-9.04873
▁2020	-9.04874
計	-9.04913
ステ	-9.05086
="	-9.05142
者の	-9.05171
想	-9.05353
を行う	-9.05383
2004	-9.054
ざ	-9.05403
熱	-9.05536
横浜	-9.05556
街	-9.05708
70	-9.05906
×	-9.06038
mm	-9.06147
華	-9.06176
もと	-9.06198
課	-9.06263
名は	-9.06314
組織	-9.0635
RE	-9.06639
廃	-9.06641
アメリカ合衆国	-9.06704
弾	-9.06736
デン	-9.06806
紙	-9.06891
ie	-9.07049
築	-9.07091
ッシュ	-9.07162
um	-9.07193
団体	-9.07257
企画	-9.07278
ぼ	-9.07289
積	-9.07346
破	-9.07398
パン	-9.07424
▁2021	-9.07462
一部	-9.07491
研究所	-9.07603
サービス	-9.07627
最高	-9.07773
運動	-9.07824
美術	-9.07863
酸	-9.07875
スタン	-9.08036
詩	-9.08082
2020	-9.08144
メートル	-9.08168
ウス	-9.08175
短	-9.08228
▁||	-9.08258
プレー	-9.08322
現在は	-9.08453
自身	-9.08487
se	-9.08504
のため	-9.08583
視	-9.08697
1985	-9.08842
ユー	-9.08897
死去	-9.0901
リリース	-9.09047
令	-9.0918
cm	-9.09209
バン	-9.09211
劇場	-9.09232
休	-9.0931
2023	-9.09358
サイ	-9.09359
岸	-9.09363
▁2004	-9.09381
放	-9.09461
クト	-9.09486
著	-9.09519
1984	-9.09555
ul	-9.09632
首	-9.09645
開業	-9.09654
フォ	-9.09774
際	-9.09802
▁略歴	-9.09833
キー	-9.09853
除	-9.09971
内容	-9.10076
独立	-9.10157
実施	-9.10176
会長	-9.10209
向け	-9.10257
36	-9.10513
スーパー	-9.10542
営	-9.10579
)3	-9.10709
▁その他	-9.10954
主に	-9.11062
康	-9.11089
▁[	-9.11123
AN	-9.11217
丘	-9.11246
ことから	-9.1127
市の	-9.11303
球	-9.1131
ST	-9.11376
プリ	-9.11428
リスト	-9.11464
機関	-9.11697
時に	-9.11726
専門	-9.11759
38	-9.11822
1998	-9.11841
発足	-9.11888
からの	-9.11915
37	-9.11934
復	-9.11979
完成	-9.12025
エー	-9.12037
▁収録曲	-9.12076
盛	-9.12123
せん	-9.12144
塩	-9.12145
海軍	-9.12161
ヴォ	-9.12228
喜	-9.12255
ファン	-9.12276
="2"|-||	-9.12316
雲	-9.12404
隆	-9.12448
博	-9.12455
部分	-9.12662
55	-9.12682
読	-9.12813
中に	-9.12831
翌	-9.12913
39	-9.12944
公開	-9.1296
銀行	-9.1298
デザイン	-9.12992
麻	-9.13092
航空	-9.13124
予	-9.13224
番号	-9.13279
...	-9.13404
文庫	-9.13593
▁2022	-9.13693
ヴェ	-9.13722
並	-9.13934
補	-9.13978
mi	-9.14052
フリー	-9.14091
ジー	-9.14298
ッツ	-9.14317
学生	-9.14374
航	-9.14481
としては	-9.14486
政府	-9.14502
1983	-9.14561
味	-9.14619
1970	-9.14702
判	-9.14767
輪	-9.14779
楽曲	-9.14786
決定	-9.15115
諸	-9.15147
レース	-9.1515
順	-9.15235
ation	-9.15329
家の	-9.15386
特徴	-9.15405
ように	-9.15482
君	-9.15575
与	-9.15609
遊	-9.15623
AR	-9.1563
交差点	-9.15659
編集	-9.15661
遺	-9.1567
33	-9.15804
に位置する	-9.15854
龍	-9.15901
バンド	-9.1594
政治	-9.1599
戦で	-9.16039
32	-9.16095
それぞれ	-9.16266
▁三	-9.16373
参	-9.1643
沼	-9.16459
像	-9.16475
韓国	-9.16506
ナン	-9.16517
学会	-9.16577
ダン	-9.16605
殿	-9.16617
考え	-9.16699
ケー	-9.16742
受賞	-9.16762
2003	-9.16816
環境	-9.16835
のち	-9.16905
に対して	-9.17021
もある	-9.17112
モー	-9.17132
1997	-9.1717
1982	-9.17182
年生	-9.17279
34	-9.17317
os	-9.17356
構成	-9.17371
幅	-9.17432
頃	-9.17464
布	-9.17562
宇	-9.17582
脚本	-9.17619
ファー	-9.17699
始め	-9.1777
独	-9.17846
部門	-9.1788
得	-9.17961
酒	-9.17977
ラス	-9.17981
毛	-9.18022
ver	-9.18106
メン	-9.18107
▁この	-9.18126
2021	-9.182
ワン	-9.18333
奥	-9.18336
▁役	-9.18429
代目	-9.18546
一覧	-9.18588
める	-9.1871
容	-9.18715
om	-9.18749
▁人物	-9.18771
▁新	-9.18782
刊	-9.18808
国内	-9.18815
他の	-9.18868
TV	-9.18999
ut	-9.19033
老	-9.19092
ジャー	-9.19208
生産	-9.19214
とされる	-9.19236
必要	-9.19433
産業	-9.19444
登場	-9.19535
ig	-9.19617
1996	-9.19666
▁2003	-9.19681
を開始	-9.19709
だけ	-9.19725
だが	-9.19755
クル	-9.19785
登	-9.19807
血	-9.19839
国立	-9.19878
帝国	-9.19983
合併	-9.2003
宿	-9.20092
誌	-9.20141
行政	-9.20143
現代	-9.2022
終	-9.20269
に出場	-9.20505
以下の	-9.20533
ot	-9.20799
▁※	-9.20828
歩	-9.20901
席	-9.20913
感	-9.21023
留	-9.21043
BS	-9.21055
▁St	-9.21161
-2	-9.21185
付け	-9.21189
季	-9.21213
神戸	-9.21282
1981	-9.21303
皇	-9.2137
舞台	-9.21431
RA	-9.21496
トー	-9.21562
キング	-9.21648
DVD	-9.21712
ション	-9.21838
支援	-9.21854
られている	-9.21899
のうち	-9.21937
ほど	-9.22069
名前	-9.22069
構造	-9.22105
競技	-9.22148
EN	-9.22175
▁U	-9.22337
孫	-9.22349
1990	-9.22366
悪	-9.22404
黄	-9.22413
提供	-9.22521
ディー	-9.2265
大阪府	-9.22666
継	-9.22752
初代	-9.22828
広島	-9.22904
と呼ばれる	-9.22907
特に	-9.22982
エス	-9.23011
弟	-9.2314
▁m	-9.23178
RO	-9.23189
指	-9.23192
▁東京	-9.23196
名古屋	-9.23241
があった	-9.23289
統合	-9.23398
1979	-9.23545
細	-9.23571
登録	-9.23604
桜	-9.23665
工場	-9.23739
帝	-9.2375
漢	-9.23755
メイ	-9.24021
也	-9.24157
ow	-9.24238
1995	-9.24241
たい	-9.24311
設計	-9.24313
目的	-9.24408
際に	-9.24424
チョ	-9.24565
写真	-9.24658
na	-9.24666
学科	-9.2467
初めて	-9.24671
法人	-9.24685
んで	-9.24883
最大	-9.24888
撮影	-9.24946
矢	-9.24948
帰	-9.2496
の娘	-9.24964
47	-9.24996
ゾ	-9.25004
健	-9.25029
引き	-9.25089
区間	-9.25105
えた	-9.25189
などを	-9.25302
▁de	-9.25332
表記	-9.25343
入れ	-9.25418
速	-9.25446
アニメ	-9.25467
智	-9.2551
飛	-9.25545
何	-9.25558
那	-9.25563
勝利	-9.25579
難	-9.25592
追	-9.25645
牧	-9.25775
温泉	-9.25831
シア	-9.25958
これは	-9.26021
の第	-9.26042
列	-9.26046
ニュース	-9.26055
片	-9.26055
降	-9.2617
スペイン	-9.26189
国民	-9.26198
1972	-9.26271
砲	-9.26281
ヨーロッパ	-9.26335
1978	-9.26418
▁–	-9.26505
初の	-9.26656
慶	-9.26689
ミュージック	-9.26778
博士	-9.26812
に参加	-9.26862
の間	-9.26896
ほ	-9.26981
茂	-9.27081
やま	-9.27094
決勝	-9.27111
▁作曲	-9.27117
づ	-9.27158
業務	-9.2722
ta	-9.27276
受	-9.273
愛知県	-9.27324
▁2000	-9.27329
旅	-9.27344
co	-9.27353
以外	-9.27394
芸術	-9.27412
内の	-9.27504
天皇	-9.27505
朝鮮	-9.27527
▁西	-9.27804
圧	-9.27827
44	-9.27914
始	-9.27917
自由	-9.27928
姓	-9.28035
域	-9.28052
スキー	-9.28127
国の	-9.28217
杉	-9.28225
護	-9.28227
寛	-9.28229
学園	-9.28283
1994	-9.28396
創	-9.28433
連合	-9.28445
銀	-9.28473
ミー	-9.28552
位置	-9.28557
NA	-9.28567
に入	-9.28582
共同	-9.28584
引	-9.28624
ティー	-9.28638
郵便局	-9.28662
連続	-9.28663
機能	-9.2867
術	-9.2868
▁2002	-9.28756
亜	-9.28762
児	-9.28784
ネット	-9.2888
時代の	-9.28965
▁出演	-9.29085
卒業後	-9.29184
枚	-9.29215
オブ	-9.29259
須	-9.29265
アメリカ合衆国の	-9.29297
ma	-9.293
非	-9.29352
kg	-9.29368
ろう	-9.29387
兄	-9.29431
大字	-9.29473
プロデューサー	-9.29473
78	-9.29581
鹿	-9.29615
イー	-9.29633
ダム	-9.29728
どう	-9.29788
49	-9.29794
とう	-9.29852
1976	-9.29862
柳	-9.29982
呼ばれ	-9.30089
CM	-9.30244
rowspan	-9.30255
演奏	-9.30291
結成	-9.30307
めた	-9.30515
コース	-9.30689
界	-9.30788
第二	-9.30809
ローマ	-9.30831
専	-9.30838
具	-9.30894
フル	-9.31011
由	-9.31017
2022	-9.3103
に就任	-9.31066
確	-9.31126
オリジナル	-9.31221
歴史	-9.31224
私	-9.31264
ドゥ	-9.31355
教会	-9.31359
di	-9.31384
われ	-9.31396
政治家	-9.31409
46	-9.31498
昇	-9.31504
服	-9.3174
AL	-9.31743
望	-9.31812
ンズ	-9.31882
▁2001	-9.31963
会議	-9.31979
夢	-9.31987
展	-9.32032
にあった	-9.32049
評価	-9.32104
▁and	-9.32214
事務所	-9.32263
▁Re	-9.32281
1974	-9.32298
ジャン	-9.32305
ドー	-9.32395
1973	-9.32429
1975	-9.32472
▁東	-9.32493
リオ	-9.325
魚	-9.32524
ベン	-9.32538
辺	-9.32562
俳優	-9.32647
1977	-9.32659
ベース	-9.32689
インド	-9.3272
換	-9.32727
情	-9.32737
に所属	-9.32743
ent	-9.32822
警察	-9.32913
福岡	-9.32922
映像	-9.32933
陸軍	-9.32944
ホール	-9.33062
ER	-9.33071
!!	-9.33097
秒	-9.33346
焼	-9.33351
1993	-9.33358
少年	-9.33361
解説	-9.33366
物語	-9.33377
鶴	-9.3341
貴	-9.3351
最も	-9.33571
女優	-9.3364
58	-9.33663
de	-9.33831
射	-9.33905
BC	-9.33934
を務め	-9.34013
俊	-9.34021
テル	-9.34027
THE	-9.34152
ビア	-9.34166
房	-9.34241
チャー	-9.34246
軽	-9.34255
考	-9.34268
稲	-9.3431
TBS	-9.34326
いる	-9.34338
TO	-9.34406
堀	-9.34465
ペン	-9.34559
日まで	-9.3456
あり	-9.34611
電気	-9.34669
祖	-9.34722
同じ	-9.34729
竜	-9.34781
ウル	-9.34841
略	-9.34881
ポン	-9.34937
ライト	-9.34963
労働	-9.35028
就	-9.35051
暦	-9.3508
開設	-9.35104
の中で	-9.35172
id	-9.35266
1971	-9.35269
待	-9.35294
しく	-9.35312
同様	-9.35353
43	-9.35364
書房	-9.35423
配信	-9.35487
魔	-9.35519
湯	-9.35617
ビデオ	-9.35618
奈	-9.3562
42	-9.35713
九	-9.35881
ソー	-9.35883
サイト	-9.35976
伯	-9.36166
浅	-9.36239
通信	-9.36272
景	-9.36287
59	-9.3667
そして	-9.367
神奈川県	-9.36708
医	-9.36737
されて	-9.36876
善	-9.36919
層	-9.36961
1960	-9.37
告	-9.37095
本作	-9.37155
に改称	-9.3717
注	-9.372
方面	-9.37204
毎	-9.37205
〈	-9.37241
〉	-9.3733
ロード	-9.37356
幼	-9.37359
ると	-9.37549
緑	-9.37576
茶	-9.37604
本部	-9.37797
温	-9.37814
社長	-9.37872
ve	-9.37971
なか	-9.38095
させ	-9.38133
)10	-9.3816
ワイ	-9.38199
過	-9.38314
争	-9.38371
密	-9.38384
整備	-9.38397
エイ	-9.38403
ボー	-9.38418
証	-9.3843
兵庫県	-9.38505
かな	-9.38523
日本語	-9.38531
のアルバム	-9.3875
当時の	-9.38797
ac	-9.38845
多く	-9.38854
辞	-9.38966
57	-9.39042
発行	-9.39085
症	-9.39104
けん	-9.39157
予定	-9.39159
工事	-9.39219
ell	-9.39232
活躍	-9.39327
以上	-9.39343
おり	-9.39349
.2	-9.39455
作家	-9.39475
人が	-9.39482
勢	-9.39522
資	-9.39559
純	-9.39625
なら	-9.39671
習	-9.3974
観光	-9.39798
文字	-9.39851
―	-9.39923
飯	-9.40013
のこと	-9.40038
1969	-9.40148
舞	-9.40152
わる	-9.4017
AT	-9.40176
ケン	-9.4018
絶	-9.40327
発売された	-9.40328
市にある	-9.40345
かれ	-9.4057
試験	-9.40614
no	-9.40637
and	-9.40645
▁国道	-9.40658
校舎	-9.40661
協力	-9.40674
部長	-9.40712
内に	-9.40733
予選	-9.40739
を受けた	-9.4081
議会	-9.40835
投	-9.40905
ine	-9.4101
Q	-9.41029
男性	-9.4107
88	-9.41139
ルド	-9.41182
MI	-9.41221
Co	-9.41234
飛行	-9.4125
パリ	-9.41294
つけ	-9.41321
オープン	-9.4134
自然	-9.41431
art	-9.41466
限	-9.41499
覚	-9.41528
問	-9.41597
ニューヨーク	-9.41645
56	-9.41649
ために	-9.41684
いく	-9.41727
孝	-9.4176
54	-9.41815
オール	-9.41837
最終	-9.41862
替	-9.41916
議員	-9.42015
かった	-9.42068
砂	-9.42121
41	-9.42246
▁In	-9.42287
仏	-9.4229
イベント	-9.42329
突	-9.42335
グル	-9.42347
ge	-9.42368
ry	-9.42412
続け	-9.42435
.1	-9.42473
個人	-9.42544
ha	-9.42656
処	-9.42658
閉	-9.42725
監	-9.4275
ソング	-9.42876
ミニ	-9.42924
超	-9.42959
NE	-9.43054
とし	-9.43055
かけ	-9.43181
南部	-9.43233
ところ	-9.43252
1968	-9.43254
そう	-9.43281
500	-9.43338
ag	-9.43372
東北	-9.43423
本社	-9.43662
共和国	-9.43767
背	-9.43809
人間	-9.43826
埼玉県	-9.43904
骨	-9.44
ウン	-9.4404
江戸	-9.44058
昌	-9.44073
The	-9.44086
時期	-9.44139
東海	-9.4414
期間	-9.44156
本線	-9.44185
湾	-9.44191
ウム	-9.44332
のために	-9.44338
以前	-9.44358
消	-9.44428
まる	-9.44513
ショー	-9.44547
ケット	-9.44704
対応	-9.44799
キャラクター	-9.44845
▁1999	-9.44887
ショ	-9.44947
化学	-9.44978
op	-9.44997
冬	-9.45006
テー	-9.45015
なり	-9.45095
アンド	-9.45211
を担当	-9.45325
植物	-9.45372
▁交通	-9.45373
75	-9.45401
させる	-9.45464
新聞	-9.45578
ブレ	-9.45606
データ	-9.45651
適	-9.45776
講	-9.45811
乱	-9.45814
西部	-9.4583
だい	-9.45897
不明	-9.45914
ゴール	-9.46015
採用	-9.46096
パイ	-9.46124
関西	-9.46176
医療	-9.46325
ヴァー	-9.46338
ブルー	-9.46461
01	-9.46467
フジテレビ	-9.46485
則	-9.46507
高い	-9.46559
公演	-9.4662
フレ	-9.46715
ライン	-9.46749
を含む	-9.4676
ab	-9.46816
給	-9.46852
得点	-9.46922
BA	-9.46945
.3	-9.4699
かり	-9.46997
家族	-9.4713
爆	-9.47151
im	-9.47178
果	-9.47218
寿	-9.47249
頼	-9.47318
発生	-9.47328
裕	-9.47332
▁in	-9.47381
発表	-9.47402
ホー	-9.47416
1967	-9.47436
ソフト	-9.47497
以下	-9.47588
圏	-9.47612
国家	-9.4769
富士	-9.47693
ight	-9.47749
月号	-9.47805
ものである	-9.47806
テーマ	-9.47872
固	-9.48005
月から	-9.48014
前に	-9.48082
県道	-9.481
ロック	-9.48114
江戸時代	-9.48218
営業	-9.48354
ーク	-9.48584
提	-9.48623
全日本	-9.48632
納	-9.4864
高等	-9.48731
ーション	-9.4877
ぶり	-9.48785
ようになった	-9.48787
劇	-9.48789
ょ	-9.4887
印	-9.48895
しょう	-9.48998
05	-9.49032
200	-9.49072
を参照	-9.49216
付近	-9.49221
車両	-9.49269
荒	-9.49293
ni	-9.49327
é	-9.49452
主義	-9.49472
クション	-9.49475
かん	-9.49554
まり	-9.49594
TA	-9.4965
霊	-9.49678
ou	-9.49732
完全	-9.49736
発見	-9.49738
日発売	-9.49759
状態	-9.49774
誕生	-9.49817
のような	-9.49819
東部	-9.4985
共著	-9.49878
▁Ch	-9.4992
運行	-9.49937
”	-9.49952
KO	-9.50077
されており	-9.50077
に出	-9.50092
ill	-9.50146
雅	-9.50322
初期	-9.50372
台湾	-9.50387
all	-9.5047
ボン	-9.5047
取締役	-9.5058
については	-9.50627
幕	-9.50766
組合	-9.50793
チュ	-9.50824
思	-9.50917
宇宙	-9.50919
号線	-9.51042
可	-9.51059
岳	-9.51118
アナウンサー	-9.51145
距離	-9.5117
最初の	-9.51189
令和	-9.51363
テレビドラマ	-9.51395
開校	-9.51402
me	-9.5148
イル	-9.51561
映	-9.51611
歌手	-9.5163
言語	-9.51639
99	-9.51678
認	-9.51679
可能	-9.51808
ギター	-9.5183
抜	-9.51853
指導	-9.5188
杯	-9.52043
彼女	-9.52093
為	-9.52111
ような	-9.52112
礼	-9.52124
-3	-9.52159
雑誌	-9.52159
騎	-9.52177
ct	-9.52219
▁著書	-9.52246
農業	-9.52275
▁Ma	-9.52297
いち	-9.52372
競走	-9.52383
したもの	-9.52386
面積	-9.52399
などが	-9.52445
デル	-9.52547
回戦	-9.52557
中村	-9.52571
衛	-9.52629
自分	-9.5267
ただし	-9.52704
衣	-9.52714
澤	-9.52725
1964	-9.52737
丹	-9.52787
一方	-9.52864
宣	-9.52905
–	-9.52938
駐	-9.52993
ミン	-9.53024
1955	-9.5308
スタジオ	-9.53101
1947	-9.53173
▁1998	-9.53192
▁編曲	-9.53225
キン	-9.53236
展開	-9.53279
を用い	-9.53284
値	-9.53453
RI	-9.53515
UN	-9.5355
デー	-9.5374
鈴木	-9.53852
成立	-9.53875
エンジン	-9.53903
しま	-9.53967
旗	-9.53973
mo	-9.53993
タイム	-9.54054
1966	-9.54066
協	-9.54097
混	-9.54187
測	-9.5423
街道	-9.54238
税	-9.54268
レコード	-9.54305
仮	-9.54336
SA	-9.54381
LE	-9.5439
ことで	-9.54403
空港	-9.54417
済	-9.54422
わり	-9.54447
当選	-9.54523
王座	-9.54637
河川	-9.54658
貞	-9.54666
関東	-9.54684
雪	-9.54691
メント	-9.54741
離	-9.54925
れば	-9.54927
察	-9.54938
評	-9.54951
名を	-9.54977
千葉県	-9.55046
53	-9.55067
クラス	-9.5509
コーナー	-9.55197
委員	-9.55211
さい	-9.55234
ラル	-9.55278
デイ	-9.55332
一郎	-9.5534
然	-9.5536
以来	-9.55372
トラック	-9.55385
案	-9.55387
引退	-9.55523
彼は	-9.55585
1965	-9.55587
クレ	-9.55611
厚	-9.55619
トップ	-9.55678
知られ	-9.55693
しない	-9.55698
04	-9.55806
対象	-9.55811
全て	-9.55823
になり	-9.55854
ive	-9.55877
アラ	-9.55947
演出	-9.5595
衆	-9.55998
オル	-9.56003
するため	-9.56004
操	-9.56054
ナイ	-9.56114
公式	-9.56195
主演	-9.56322
62	-9.56365
立ち	-9.564
精	-9.56426
II	-9.56428
書店	-9.56498
所在地	-9.56569
織	-9.56603
弁	-9.56666
亀	-9.56697
主要	-9.56736
子供	-9.568
スカ	-9.56814
ボル	-9.56824
ナル	-9.56838
移籍	-9.5685
52	-9.5686
幹	-9.56876
ではない	-9.56891
ウェイ	-9.56984
03	-9.56994
を見	-9.57039
認定	-9.5715
よし	-9.57202
推	-9.57276
工学	-9.57282
65	-9.57294
io	-9.57304
支店	-9.57437
資料	-9.57499
ph	-9.57505
れて	-9.57519
ファイ	-9.57543
列車	-9.57561
ホテル	-9.57585
を設立	-9.57598
カード	-9.57603
アフリカ	-9.57613
ドン	-9.57654
爵	-9.57702
アス	-9.57712
シャー	-9.57718
ME	-9.57724
ではなく	-9.57792
割	-9.57796
分類	-9.57809
規	-9.57853
ものの	-9.5788
を卒業	-9.57969
ラム	-9.57987
CA	-9.58044
札幌	-9.58068
OR	-9.58235
ボール	-9.58259
ヴァン	-9.58326
仕	-9.58351
せい	-9.58364
嘉	-9.58407
たか	-9.58443
画家	-9.58491
オス	-9.58494
働	-9.5852
ビン	-9.58534
芝	-9.58555
77	-9.58596
形成	-9.5865
スコ	-9.58652
限定	-9.5866
滝	-9.58672
文化財	-9.58675
などで	-9.58678
フォン	-9.58689
数は	-9.58692
pe	-9.58708
ョ	-9.58766
▁1997	-9.5878
市出身	-9.58865
紹介	-9.58913
▁生涯	-9.58956
ガス	-9.58989
lu	-9.59026
振	-9.59043
雨	-9.59169
を果たした	-9.59255
著作	-9.5929
吹	-9.59378
est	-9.59431
といった	-9.59555
ブランド	-9.597
コーチ	-9.59787
のように	-9.59789
同時に	-9.59803
に対する	-9.59828
縁	-9.59888
犬	-9.59938
舎	-9.59942
IS	-9.59965
ちゃん	-9.5997
墓	-9.59975
態	-9.59995
返	-9.60005
であったが	-9.6004
ov	-9.60048
享	-9.601
連盟	-9.60106
ard	-9.60114
1963	-9.60128
おお	-9.60199
寺院	-9.60199
トレ	-9.60204
岐	-9.60265
68	-9.60363
形式	-9.60443
.4	-9.6045
フロ	-9.60457
大臣	-9.60486
梅	-9.60488
後は	-9.60488
延長	-9.60505
むら	-9.60539
ポジションは	-9.60543
穂	-9.60552
を行った	-9.60621
人気	-9.60622
ちょう	-9.60637
巡	-9.60695
枝	-9.60727
IT	-9.60799
ツアー	-9.60845
▁1996	-9.60851
再び	-9.60903
ロス	-9.60961
負	-9.61107
にあたる	-9.61231
出来	-9.61236
大統領	-9.6124
▁&	-9.61246
北部	-9.61271
ロンドン	-9.61298
hi	-9.61304
平均	-9.61345
になっている	-9.61361
1962	-9.61373
終点	-9.61396
vi	-9.614
シティ	-9.61574
動物	-9.61596
福岡県	-9.61627
ci	-9.61687
メディア	-9.61758
項	-9.61781
等の	-9.61795
ジャパン	-9.61884
1950	-9.61928
将軍	-9.62064
カイ	-9.6209
去	-9.62094
襲	-9.62102
シャル	-9.62113
裏	-9.62113
熊	-9.62148
ジュニア	-9.62202
折	-9.62248
標	-9.62277
メイン	-9.6234
1954	-9.62364
のある	-9.62378
グリ	-9.62387
▁1995	-9.62415
リック	-9.62474
災	-9.62492
を中心に	-9.62513
山口	-9.62538
フラ	-9.62539
長男	-9.62539
ひろ	-9.62542
1||	-9.62601
枠	-9.62634
住宅	-9.62709
しん	-9.62711
町立	-9.62803
普通	-9.62941
ニング	-9.62952
便	-9.63011
請	-9.63087
ウォ	-9.63101
と結婚	-9.63209
と改称	-9.63307
接続	-9.63308
セント	-9.63382
賞を受賞	-9.63437
原作	-9.63785
施行	-9.63795
戻	-9.63883
に変更	-9.64139
大きな	-9.64186
かわ	-9.64287
庫	-9.64381
76	-9.6439
1961	-9.64411
51	-9.64481
理事	-9.64496
市長	-9.64533
招	-9.64538
デュ	-9.64544
させた	-9.64558
よく	-9.64574
1959	-9.64615
ネー	-9.64621
陣	-9.64636
刑	-9.64644
創設	-9.6471
姫	-9.64815
63	-9.64909
1956	-9.64949
有名	-9.64993
学院	-9.65031
ニック	-9.65078
者は	-9.65085
尚	-9.65219
したこと	-9.65223
指揮	-9.65281
店舗	-9.65304
掲載	-9.65311
存	-9.65321
1945	-9.65322
カナダ	-9.65391
翌年	-9.654
捕	-9.65542
意味	-9.65595
ers	-9.65642
激	-9.65704
になって	-9.65725
似	-9.65744
フィー	-9.65795
イギリスの	-9.65815
植	-9.65835
em	-9.65868
ワールド	-9.65947
佐藤	-9.66007
洞	-9.66029
69	-9.66054
氏の	-9.66072
大学大学院	-9.66118
ポリ	-9.66123
分離	-9.66185
婦	-9.66217
自治体	-9.66328
害	-9.66447
ゲン	-9.66449
異なる	-9.66462
多数	-9.66505
泰	-9.66514
亡	-9.66528
者が	-9.66534
李	-9.66562
管轄	-9.66564
▁1994	-9.66601
区域	-9.66613
静岡県	-9.66906
ウォー	-9.66907
レッ	-9.6692
唐	-9.66995
SC	-9.66999
ピアノ	-9.67089
進学	-9.67109
双	-9.67141
SS	-9.67154
散	-9.67231
パル	-9.67301
起点	-9.67307
ける	-9.67394
旭	-9.67688
分布	-9.67742
オーストラリア	-9.67757
連載	-9.67778
庄	-9.67779
▁1993	-9.67793
すべて	-9.67871
構	-9.6789
に移籍	-9.67916
徒歩	-9.67923
歳で	-9.67967
商業	-9.67973
へと	-9.68006
こともある	-9.68043
なし	-9.68129
釈	-9.68141
BO	-9.68146
していたが	-9.68206
政策	-9.68223
ly	-9.68234
コミック	-9.6835
.7	-9.68407
流れ	-9.68409
田中	-9.68413
娘	-9.68491
搭載	-9.68496
ist	-9.68517
da	-9.68533
姿	-9.6856
ass	-9.68583
電子	-9.6866
を歴任	-9.68663
1958	-9.68741
ti	-9.68773
貫	-9.68818
準	-9.68819
えて	-9.68838
獲得	-9.68871
ce	-9.68966
牛	-9.68993
岐阜県	-9.69008
飾	-9.69099
製品	-9.69133
ジン	-9.69191
ho	-9.69205
カバー	-9.69332
山田	-9.69344
やす	-9.69358
会員	-9.69385
カラ	-9.69419
市民	-9.69419
益	-9.6942
1948	-9.69426
のための	-9.69528
願	-9.69587
探	-9.69588
LA	-9.69678
まれ	-9.69688
チン	-9.69808
荘	-9.69891
64	-9.69907
導入	-9.69928
入社	-9.69948
ゆう	-9.70005
田村	-9.70029
バージョン	-9.70051
脱	-9.70167
通常	-9.70194
王国	-9.70227
方法	-9.7027
清水	-9.70327
入学	-9.70345
肉	-9.7038
ap	-9.70426
.6	-9.70552
CO	-9.7057
闘	-9.7058
少女	-9.70615
MO	-9.70629
日本テレビ	-9.70741
経験	-9.70752
ゴー	-9.70794
自動車道	-9.70846
途中	-9.70847
リュ	-9.70857
パラ	-9.70897
試	-9.70907
冠	-9.70925
バック	-9.70961
全体	-9.71043
長野県	-9.7106
マリ	-9.71143
挙げ	-9.71153
ピン	-9.71215
“	-9.71224
きょう	-9.71266
をもって	-9.71266
ant	-9.71285
ミュ	-9.71295
アップ	-9.71323
der	-9.71335
もあり	-9.71368
アクセス	-9.71369
編成	-9.71393
.8	-9.71393
切り	-9.71434
AM	-9.71701
油	-9.71734
封	-9.71804
結婚	-9.71863
彼	-9.71949
図書館	-9.71971
ドラ	-9.71976
拠点	-9.72005
のシングル	-9.72024
創立	-9.72034
唯	-9.72042
保護	-9.72046
に収録	-9.72047
羅	-9.72062
児童	-9.72072
模	-9.721
鉱	-9.72106
料理	-9.7214
念	-9.72148
地元	-9.72164
SE	-9.72166
の戦い	-9.72174
au	-9.72285
▁1990	-9.72343
筋	-9.72344
様々な	-9.72348
浩	-9.7237
翼	-9.72409
復帰	-9.72435
ニコ	-9.72504
ブロ	-9.72507
尊	-9.72574
ub	-9.72577
CE	-9.72578
以後	-9.72628
吉田	-9.72656
救	-9.7266
バラ	-9.72664
千葉	-9.72756
生物	-9.72777
ポー	-9.72782
輝	-9.72839
制度	-9.72877
アレ	-9.72903
額	-9.72927
法律	-9.72934
ブルク	-9.72937
大阪市	-9.72966
連邦	-9.72987
逆	-9.72992
ide	-9.73042
アカデミー	-9.73051
☆	-9.73116
うち	-9.73241
誠	-9.73298
ガル	-9.73308
の楽曲	-9.73382
算	-9.73387
ッグ	-9.73438
レッド	-9.73446
発表された	-9.73447
仙台	-9.73581
月には	-9.73632
US	-9.73654
程	-9.73675
怪	-9.73719
生徒	-9.73729
を獲得した	-9.73737
医学	-9.7388
阪	-9.74082
▁De	-9.74131
ベー	-9.74133
系統	-9.74162
66	-9.74187
ru	-9.74194
設	-9.74206
核	-9.74227
畑	-9.74294
弥	-9.74343
ティン	-9.74344
メル	-9.74362
勝ち	-9.74511
我	-9.74528
庭	-9.74557
事故	-9.74562
ザン	-9.74581
荷	-9.74594
>	-9.7465
ネス	-9.7467
ほとんど	-9.74692
08	-9.74735
進出	-9.74744
綱	-9.7477
KA	-9.74818
の地名	-9.74917
減	-9.75023
承	-9.75056
展示	-9.75057
通称	-9.75094
1941	-9.75115
ak	-9.75144
ジョージ	-9.7525
ダンス	-9.75276
ぬ	-9.7529
叙	-9.7532
メーカー	-9.75345
あるいは	-9.75357
その他	-9.75362
攻撃	-9.75388
ィ	-9.7546
週	-9.75463
放送された	-9.75653
境	-9.75822
なる	-9.75829
伸	-9.75853
ソロ	-9.75881
ブー	-9.75906
1949	-9.75988
下車	-9.76019
qu	-9.7602
67	-9.76053
好き	-9.76096
郵便	-9.76103
ティング	-9.76193
務め	-9.76211
ペル	-9.76237
形で	-9.76251
チャン	-9.76334
ボーカル	-9.76337
博物館	-9.76345
立て	-9.76364
影響	-9.76376
昭	-9.76539
ワールドカップ	-9.76554
新潟県	-9.76564
奏	-9.7662
1957	-9.76653
新潟	-9.76675
を務める	-9.76725
サル	-9.76738
ISBN	-9.76744
ian	-9.76765
太陽	-9.76774
場合は	-9.76776
オフ	-9.76776
警	-9.76778
FM	-9.76812
▁ISBN	-9.76828
虫	-9.76832
ハウス	-9.76863
フラン	-9.76911
man	-9.76929
市場	-9.76942
としている	-9.76973
導	-9.76992
至	-9.7704
タウン	-9.7715
を獲得	-9.77155
ごう	-9.77236
の間に	-9.77267
仲	-9.77406
っと	-9.7744
の歴史	-9.77507
正式	-9.77516
沿	-9.7754
スティー	-9.77544
専攻	-9.77558
CH	-9.77559
当初は	-9.7756
架	-9.77614
(2007	-9.77619
奉	-9.77632
論文	-9.77727
同社	-9.77748
プロジェクト	-9.77797
形態	-9.77836
したため	-9.7788
世界選手権	-9.77889
炭	-9.77957
コル	-9.77972
DI	-9.77982
剣	-9.78009
デジタル	-9.78104
描	-9.78158
ポル	-9.78187
時代に	-9.78284
TI	-9.78289
建物	-9.78424
駒	-9.78442
系列	-9.78446
彩	-9.78489
ment	-9.785
メジャー	-9.78519
DA	-9.78597
刊行	-9.78608
カリ	-9.7862
しか	-9.78623
ルート	-9.78664
彼の	-9.78665
;	-9.78671
部隊	-9.78875
としても	-9.78898
ラグビー	-9.78955
憲	-9.78984
テレビ朝日	-9.78986
巨	-9.79048
1952	-9.79082
松本	-9.79177
(2008	-9.79225
聞	-9.79241
晴	-9.79264
録	-9.79268
(2009	-9.79285
ストン	-9.79299
規模	-9.79315
打ち	-9.79335
メダル	-9.79362
セイ	-9.79429
障害	-9.7955
ノン	-9.79613
市内	-9.79648
乗り	-9.79653
これを	-9.79654
掛け	-9.79732
占	-9.79744
哲	-9.79752
ゲー	-9.79789
込	-9.79791
近く	-9.79797
(2010	-9.79817
脈	-9.79881
つか	-9.7995
もう	-9.80022
行われる	-9.80086
ate	-9.80114
アナ	-9.80147
」、「	-9.80168
KI	-9.8026
講師	-9.80263
つく	-9.80333
▁Mo	-9.80369
敷	-9.80477
レギュラー	-9.80555
譜	-9.80559
がいる	-9.8056
フランスの	-9.80568
オリ	-9.80596
開通	-9.80646
柄	-9.80812
移転	-9.80821
が多い	-9.80851
サッカー選手	-9.80865
オランダ	-9.80946
勤務	-9.80991
じょう	-9.81043
濃	-9.81095
天文	-9.8114
LI	-9.81146
を取得	-9.81206
邦	-9.81303
ヘル	-9.81347
HO	-9.81369
-8	-9.81385
(2011	-9.81416
学研究科	-9.81492
程度	-9.81524
に位置し	-9.81541
隠	-9.8161
壁	-9.81646
パーク	-9.81648
出身の人物	-9.81695
藤原	-9.81741
ディア	-9.81793
因	-9.81798
峰	-9.81856
戦後	-9.81988
ドロ	-9.82011
ke	-9.82087
費	-9.82113
紀元前	-9.82171
ng	-9.82223
福島	-9.82282
筆	-9.82305
he	-9.82373
保険	-9.82396
ラブ	-9.82408
によると	-9.82454
臣	-9.82568
三郎	-9.82599
貴族	-9.82605
表示	-9.82607
静	-9.8274
エア	-9.8276
最後の	-9.82827
グランプリ	-9.82837
暗	-9.82858
地名	-9.82883
公立	-9.82911
芳	-9.82941
ff	-9.82987
菊	-9.83076
(2012	-9.83125
を取り	-9.83158
許	-9.83279
ディング	-9.83308
余	-9.83343
呼	-9.83346
ドリ	-9.83426
ING	-9.83477
(2006	-9.83497
時点で	-9.83499
通算	-9.83514
土曜	-9.83578
プル	-9.83595
1953	-9.8367
兄弟	-9.83679
種類	-9.83731
ュ	-9.83752
▁スタッフ	-9.83765
功	-9.83872
けた	-9.83876
.9	-9.83899
住民	-9.84046
月まで	-9.84047
○	-9.84061
実際	-9.84079
次郎	-9.84129
継承	-9.84163
滅	-9.84164
写	-9.8417
分野	-9.84207
求め	-9.84263
ゲスト	-9.84296
シル	-9.843
400	-9.84335
象	-9.84339
1951	-9.84355
以	-9.84358
ガイ	-9.84364
新設	-9.84377
DE	-9.84443
ウィン	-9.84472
照	-9.84521
主催	-9.84577
地球	-9.84636
だったが	-9.84638
300	-9.84688
剤	-9.84793
複数	-9.84819
言葉	-9.84953
の影響	-9.85145
商品	-9.85157
活	-9.85161
高橋	-9.85259
警察署	-9.85339
倒	-9.85374
頂	-9.85411
禄	-9.85524
まま	-9.85564
えき	-9.85587
らない	-9.85677
を与え	-9.85679
事務	-9.85787
還	-9.85868
受け	-9.85892
候補	-9.85951
敬	-9.85966
選手権大会	-9.85971
one	-9.8598
既	-9.86058
09	-9.86078
ぞ	-9.86147
株	-9.86153
塔	-9.86197
son	-9.86198
いている	-9.86234
グレ	-9.86237
本名	-9.86302
ET	-9.86314
入団	-9.86329
垣	-9.86365
福祉	-9.86399
まつ	-9.86437
径	-9.8675
理由	-9.8681
(2013	-9.86833
ca	-9.86838
sh	-9.86844
斎	-9.86872
行き	-9.86913
使われ	-9.86965
らず	-9.86999
主題歌	-9.87018
征	-9.8702
状況	-9.87055
美術館	-9.87067
(2014	-9.87089
od	-9.87118
顔	-9.87152
ブラジル	-9.87159
1944	-9.8716
運転	-9.87197
豪	-9.87237
ik	-9.87324
SO	-9.87365
督	-9.87405
陵	-9.87457
キュ	-9.87535
コード	-9.87576
京都府	-9.87582
かつ	-9.87614
クー	-9.87662
奇	-9.87693
採	-9.87693
(2019	-9.8771
ッキー	-9.87799
奪	-9.87818
解散	-9.87827
大きく	-9.87845
仕事	-9.87932
栗	-9.87957
財	-9.88011
(2016	-9.88012
テレ	-9.88026
(2015	-9.88028
ナイト	-9.88032
1940	-9.88049
アイドル	-9.88063
ベイ	-9.8808
故	-9.88154
過去	-9.88179
発展	-9.88182
ud	-9.88211
よりも	-9.88212
表現	-9.88254
艇	-9.88256
勇	-9.88283
ことがある	-9.88337
及	-9.88377
八幡	-9.88384
のひとつ	-9.88416
チャート	-9.88439
違	-9.88447
金曜	-9.88447
持ち	-9.88449
ai	-9.8849
創業	-9.88548
(2018	-9.88568
訪	-9.88596
由来	-9.88676
出し	-9.88681
句	-9.88819
略称	-9.88857
コール	-9.88865
岡山	-9.88867
ステージ	-9.88968
SU	-9.88989
液	-9.89042
機械	-9.89055
小林	-9.89121
教師	-9.89154
梁	-9.89191
山本	-9.89196
バスケットボール	-9.89202
見られる	-9.89217
ran	-9.89227
イオン	-9.89239
競	-9.89279
1943	-9.89293
菜	-9.89364
広島県	-9.89434
斉	-9.89454
自ら	-9.89483
勤	-9.89533
を行い	-9.89556
機構	-9.89576
冷	-9.89583
(2017	-9.89635
SP	-9.8965
移動	-9.8965
統	-9.89657
担	-9.8967
ネル	-9.89704
以上の	-9.89794
おか	-9.89808
自治	-9.8986
新しい	-9.89917
▁Me	-9.89919
ジョー	-9.89933
設定	-9.89936
支配	-9.8997
日曜	-9.89978
06	-9.90034
伴	-9.90077
乳	-9.90113
講談社	-9.90216
記載	-9.90275
まった	-9.90276
コロ	-9.90363
古墳	-9.90365
を受けて	-9.90374
欧州	-9.90396
ウィリアム	-9.90501
雑	-9.90512
鑑	-9.90529
裁判所	-9.90543
呂	-9.90553
ミル	-9.90624
pp	-9.9068
メー	-9.90682
ang	-9.90746
地上	-9.90758
翻訳	-9.90817
地震	-9.90819
名義	-9.90862
当初	-9.90869
に対し	-9.90873
▁vs	-9.90974
ポート	-9.9102
出した	-9.91125
を発表	-9.91182
詞	-9.91187
(2005	-9.91212
で開催された	-9.9122
しゃ	-9.91273
太平洋	-9.91282
挙	-9.91286
リエ	-9.91335
止	-9.91363
拓	-9.91375
でもある	-9.91405
▁キャスト	-9.91484
ほぼ	-9.91646
ほう	-9.91811
福島県	-9.91872
するために	-9.91922
be	-9.91972
理論	-9.92039
床	-9.92056
含	-9.9209
ee	-9.921
ガール	-9.921
効果	-9.92165
首都	-9.92166
敵	-9.92196
運用	-9.9224
キャン	-9.92259
専用	-9.92268
反応	-9.92299
もあった	-9.92317
ランキング	-9.92329
入口	-9.92449
our	-9.92476
鬼	-9.9248
用いられる	-9.9248
フォード	-9.92501
大学院	-9.92581
組み	-9.9259
ホル	-9.92613
発表した	-9.92618
一丁目	-9.92725
主な	-9.92726
縮	-9.92796
1946	-9.92824
狭	-9.9284
欠	-9.92914
ケイ	-9.92937
行われた	-9.93131
du	-9.93162
被	-9.93201
更	-9.93215
消防	-9.93323
AS	-9.93325
do	-9.93393
に出演	-9.93441
<	-9.93464
内閣	-9.93543
判定	-9.93559
笑	-9.93587
枚目	-9.93587
輔	-9.93588
労	-9.93619
を設置	-9.93637
NO	-9.93657
大型	-9.93696
祐	-9.93738
宏	-9.93738
プロ野球	-9.93763
生き	-9.93766
TE	-9.93783
ます	-9.93784
銃	-9.93797
ber	-9.93818
伊勢	-9.93829
岡山県	-9.93903
マッ	-9.93921
傷	-9.9394
伏	-9.93941
万円	-9.94061
レット	-9.94075
ディス	-9.9408
鏡	-9.94128
コンピュータ	-9.94169
駅前	-9.94173
防衛	-9.94244
価	-9.94308
ストーリー	-9.94354
観測	-9.94354
単位	-9.94364
貨	-9.94405
07	-9.94495
AC	-9.94549
包	-9.94579
日本では	-9.94689
イングランド	-9.94693
攻	-9.94798
▁You	-9.94802
笠	-9.94804
んでいる	-9.94805
プレイ	-9.94831
迎え	-9.94854
に指定され	-9.9488
安全	-9.94888
海外	-9.94965
標準	-9.94995
才	-9.95
課長	-9.9503
筑	-9.9506
|	-9.95065
EC	-9.9508
沖縄	-9.95082
▁Le	-9.95165
齢	-9.95177
ain	-9.9524
侯	-9.95263
札	-9.95355
▁Be	-9.95375
述	-9.95398
各地	-9.95403
吾	-9.95442
署	-9.95479
申	-9.95532
通過	-9.95547
竣工	-9.95596
まさ	-9.95623
長崎	-9.95635
を記録した	-9.95697
軌道	-9.95736
同じく	-9.95758
日本代表	-9.95797
方式	-9.95828
らい	-9.95844
ki	-9.9586
装置	-9.95941
宅	-9.95959
秋田	-9.95982
セット	-9.96043
潮	-9.96064
浄	-9.96106
ことができ	-9.96124
すぐ	-9.96124
ユニ	-9.96137
選出	-9.96147
伊藤	-9.96328
施	-9.96352
戦闘	-9.96396
あい	-9.96434
1942	-9.96443
投票	-9.96471
川崎	-9.96559
に編入	-9.96573
ッカー	-9.96585
古代	-9.96624
フェル	-9.96637
中華人民共和国	-9.9664
(2021	-9.96642
を行っている	-9.96651
後期	-9.96652
と同じ	-9.968
贈	-9.96882
ムー	-9.96984
拠	-9.97002
漁	-9.97011
高速	-9.97027
ギャ	-9.9707
諸島	-9.97113
エフ	-9.97118
第三	-9.97188
月曜	-9.97274
デス	-9.97299
離れ	-9.97322
死去した	-9.97355
基礎	-9.9739
鳴	-9.97414
に属する	-9.97481
枚目のシングル	-9.97494
マーク	-9.97537
tion	-9.9756
瑞	-9.97561
資格	-9.9757
Ch	-9.97625
仙	-9.97631
助教授	-9.97676
に移転	-9.9768
沙	-9.97685
制定	-9.97706
近代	-9.9772
知事	-9.97735
駆	-9.97788
978-4	-9.97816
久保	-9.97829
分け	-9.97848
によれば	-9.97849
成功	-9.97852
レオ	-9.97878
俗	-9.97887
賢	-9.97887
妹	-9.97915
確認	-9.97994
推進	-9.97997
ツァ	-9.98
佳	-9.98134
鎌倉	-9.98152
に転	-9.98179
洲	-9.9829
けい	-9.98332
▁Ro	-9.98335
熊本	-9.98387
在籍	-9.9842
玄	-9.9842
妙	-9.98442
ess	-9.98456
談	-9.98512
棟	-9.9852
そのため	-9.9853
変化	-9.98533
!』	-9.98628
儀	-9.98677
ゼン	-9.98688
BE	-9.98706
競馬	-9.98756
ニュ	-9.98768
賞受賞	-9.98839
朗	-9.98884
北京	-9.98895
飲	-9.98898
ハル	-9.9905
浮	-9.99051
敏	-9.99068
氷	-9.99099
作曲家	-9.991
出版社	-9.99177
(2020	-9.99299
命名	-9.99437
替え	-9.99479
(*	-9.99529
専門学校	-9.99573
ニン	-9.99582
池田	-9.99594
テイ	-9.99622
毎週	-9.99693
ポイント	-9.99746
身長	-9.99812
卒	-9.99854
ec	-9.99861
陰	-9.99877
束	-9.99893
ユニット	-9.99917
込み	-9.99956
群馬県	-9.99965
罪	-9.99979
ユース	-10.0002
置かれ	-10.0011
を指す	-10.0015
方向	-10.0017
バス停	-10.0019
夕	-10.002
WA	-10.0022
所有	-10.0028
中学	-10.003
PA	-10.0031
派遣	-10.0031
輸送	-10.0031
に至る	-10.0037
主人公	-10.0039
基本	-10.0044
交流	-10.0046
グロ	-10.0048
ast	-10.0051
含まれ	-10.0052
倍	-10.0058
紅	-10.0058
っており	-10.0059
父親	-10.0062
革命	-10.0063
僧	-10.0068
ヤン	-10.0068
報告	-10.0069
線の駅	-10.0069
亭	-10.0081
テレビ東京	-10.0082
記述	-10.0083
炎	-10.0088
ダル	-10.0091
精神	-10.0093
以降は	-10.0094
ゅ	-10.0094
ラウンド	-10.0099
他に	-10.0101
GA	-10.0104
を結ぶ	-10.0108
DO	-10.0108
底	-10.0112
買	-10.0113
されていない	-10.0113
触	-10.0114
後半	-10.0121
リュー	-10.0123
譲	-10.0125
蓮	-10.0128
染	-10.0131
養子	-10.014
投手	-10.0147
恒	-10.0149
スクール	-10.0149
アーティスト	-10.016
チャンネル	-10.016
妃	-10.0168
東洋	-10.0175
AD	-10.0184
人々	-10.0188
実業家	-10.0194
ジェイ	-10.0197
ぜ	-10.0199
設立された	-10.0201
査	-10.0202
新人	-10.0204
われた	-10.0204
婚	-10.0206
渡辺	-10.022
眼	-10.0225
を意味する	-10.0237
by	-10.024
籍	-10.0245
ビュー	-10.0249
セー	-10.025
刻	-10.0251
臨	-10.0253
PO	-10.0256
毎年	-10.0259
学習	-10.026
ヴェル	-10.0267
Mi	-10.0274
を示す	-10.0292
国鉄	-10.0295
勲	-10.0298
LO	-10.03
大和	-10.0307
脚	-10.0308
=2|-||	-10.0308
▁Sh	-10.0309
せず	-10.0313
トレー	-10.0314
res	-10.0318
米国	-10.0321
課程	-10.0323
祝	-10.0331
オーストリア	-10.0332
カール	-10.0339
スペシャル	-10.0342
土地	-10.0345
スタイル	-10.035
ゴン	-10.0353
の一人	-10.0354
地下鉄	-10.0357
age	-10.0361
長さ	-10.0362
できない	-10.0367
押	-10.0377
旅客	-10.0377
ポール	-10.0379
イメージ	-10.0384
非常に	-10.0385
併	-10.0385
声優	-10.039
で行われた	-10.0391
件	-10.0391
紫	-10.0392
インターチェンジ	-10.0392
中部	-10.0393
就任	-10.0394
ack	-10.0395
(2004	-10.0398
HI	-10.0401
av	-10.0401
が多く	-10.0401
1930	-10.0404
新田	-10.0406
茨城県	-10.0415
スー	-10.0417
柏	-10.0418
体育	-10.0422
ポーランド	-10.0422
厳	-10.0423
スタート	-10.0428
梨	-10.0434
書き	-10.0435
援	-10.044
歯	-10.0441
識	-10.0448
シュー	-10.0456
ピア	-10.0462
刑事	-10.0465
ステークス	-10.0471
これらの	-10.048
されること	-10.0483
陸上競技	-10.0484
条件	-10.0486
ヨー	-10.0486
の息子	-10.0488
わった	-10.0491
裁	-10.0493
加藤	-10.0493
フライ	-10.0501
途	-10.0503
広く	-10.0504
振興	-10.0506
SI	-10.0508
相手	-10.051
記事	-10.0513
OS	-10.0525
てきた	-10.0532
脳	-10.0535
ong	-10.0537
自動	-10.0539
囲	-10.0539
録音	-10.054
金沢	-10.055
▁To	-10.0563
疑	-10.0564
指名	-10.0568
食べ	-10.057
プロレス	-10.0571
bo	-10.0577
強い	-10.0587
バレーボール	-10.0587
軍人	-10.0593
ストラ	-10.0593
拡大	-10.0594
アート	-10.0594
▁|}	-10.0598
が行われた	-10.0605
ord	-10.0608
FA	-10.0614
民族	-10.0619
つき	-10.0621
作戦	-10.0626
スタジアム	-10.0627
OL	-10.0631
理学	-10.0633
ケル	-10.0646
ヤー	-10.0646
呉	-10.0646
序	-10.0647
キュー	-10.0652
を受ける	-10.0656
SH	-10.0657
帰国	-10.0661
可能性	-10.0663
取得	-10.0668
番地	-10.0672
摩	-10.0674
細胞	-10.0681
教室	-10.0682
まち	-10.0683
sion	-10.0688
ヒット	-10.0689
にあり	-10.0693
医師	-10.0693
1||0||	-10.0693
健康	-10.0701
伝統	-10.0708
劇団	-10.0711
奈良	-10.0715
脇	-10.0715
に由来する	-10.0716
1939	-10.0718
!」	-10.072
アウト	-10.0722
初出場	-10.0731
隣	-10.0732
サラ	-10.0739
(2022	-10.0742
ツィ	-10.0745
中継	-10.0756
充	-10.0757
ity	-10.0758
地下	-10.0773
哲学	-10.0775
処理	-10.0784
スウェーデン	-10.0784
香港	-10.0798
抗	-10.0799
1937	-10.0803
統計	-10.0813
[	-10.0816
快	-10.0817
葛	-10.0822
新宿	-10.0827
暴	-10.0828
ルイ	-10.0833
フト	-10.0837
三重県	-10.0838
祥	-10.084
レーション	-10.0845
標高	-10.0854
皇帝	-10.0855
作成	-10.0857
長に就任	-10.0858
EL	-10.0864
マリア	-10.0866
EST	-10.0869
GO	-10.0871
貨物	-10.0874
タレント	-10.0876
劉	-10.0878
四国	-10.088
効	-10.0888
幕府	-10.0891
Cl	-10.0892
が行われ	-10.0892
az	-10.0894
あき	-10.0899
いずれも	-10.0901
浪	-10.0902
影	-10.0905
桃	-10.0908
グリーン	-10.0918
輸	-10.0919
▁for	-10.092
ES	-10.0923
1936	-10.0925
メキシコ	-10.0926
子会社	-10.0927
経由	-10.0931
知られている	-10.0933
干	-10.0935
プロデュース	-10.0936
てしまう	-10.0939
の一種	-10.094
※	-10.0942
愛称	-10.0942
指導者	-10.0951
ッサ	-10.0959
付き	-10.0962
ip	-10.0963
雷	-10.0963
歌詞	-10.0963
石川	-10.0965
第二次世界大戦	-10.0965
トンネル	-10.0966
網	-10.0967
海岸	-10.0973
述べ	-10.0981
避	-10.0987
尉	-10.0991
ツェ	-10.1002
プライ	-10.1004
刀	-10.1011
va	-10.1017
環	-10.1022
じん	-10.1022
RT	-10.1027
軍事	-10.1028
希	-10.1034
顕	-10.1034
坊	-10.1038
完	-10.1043
シャン	-10.1051
上記	-10.1054
損	-10.1069
能力	-10.1069
MC	-10.107
書籍	-10.1072
曽	-10.1075
定期	-10.1079
align	-10.1085
分割	-10.1094
碑	-10.1095
じゃ	-10.1097
加入	-10.1104
芸能	-10.1107
実験	-10.1107
基地	-10.111
ゴルフ	-10.1121
針	-10.1123
追加	-10.1127
エリア	-10.1131
として活動	-10.1132
麗	-10.1134
締	-10.1136
が設置され	-10.1139
岐阜	-10.1139
タイプ	-10.1142
読み	-10.1143
ぱ	-10.1145
穴	-10.1146
井上	-10.1156
ビジネス	-10.1163
電車	-10.1163
和田	-10.1164
啓	-10.1168
食品	-10.117
テレビアニメ	-10.1172
ug	-10.1176
番目の	-10.1177
▁La	-10.1178
富山	-10.118
篇	-10.118
▁He	-10.1183
up	-10.1183
に生まれる	-10.1184
チュー	-10.1193
配置	-10.1199
長官	-10.1205
塁	-10.1207
設備	-10.1209
ヶ月	-10.1212
インター	-10.1213
沖	-10.1214
改革	-10.1214
静岡	-10.1221
出典	-10.1224
死亡	-10.1229
プール	-10.1231
com	-10.1233
参考	-10.1239
ゆき	-10.1242
鹿児島	-10.1247
リリースされた	-10.125
民主党	-10.1252
前作	-10.1253
現役	-10.1254
われる	-10.1255
tra	-10.1263
会場	-10.1264
重要	-10.1269
姉	-10.1271
per	-10.1271
les	-10.1273
教員	-10.1292
宮城県	-10.1293
峠	-10.1296
宗教	-10.1297
溶	-10.1298
家庭	-10.1299
ヒル	-10.1301
町にある	-10.1302
人民	-10.1308
響	-10.1315
逃	-10.1319
グラン	-10.1323
武蔵	-10.1324
0||0||	-10.133
ib	-10.1335
用いられ	-10.1337
伝説	-10.1338
開催された	-10.1341
iv	-10.1342
姉妹	-10.1346
評論	-10.1352
回目	-10.1366
桑	-10.1368
抱	-10.1375
TR	-10.1382
||||||	-10.1383
野村	-10.1385
半島	-10.1387
糸	-10.1391
ka	-10.1408
特定	-10.1411
(2003	-10.1412
参戦	-10.1416
リアン	-10.1424
集団	-10.1424
▁style	-10.1425
出す	-10.1429
被害	-10.1431
公共	-10.1432
バイパス	-10.1436
階級	-10.145
咲	-10.146
思い	-10.1461
登板	-10.1466
Br	-10.1468
生息	-10.147
弁護士	-10.147
部屋	-10.147
息子	-10.1475
ダウン	-10.1476
経歴	-10.1478
複	-10.1479
1938	-10.1479
飼	-10.1479
徳島	-10.148
ボーイ	-10.1492
ゲル	-10.1493
IR	-10.151
思想	-10.1511
ソウル	-10.1514
ace	-10.152
同名の	-10.1523
早稲田大学	-10.1523
卵	-10.1524
筒	-10.1529
ドラム	-10.1534
剛	-10.1539
ich	-10.1539
趣味	-10.1552
条約	-10.1554
電話	-10.1556
ベルト	-10.1562
日本人	-10.1562
滑	-10.1578
微	-10.158
恐	-10.158
経済学	-10.1583
苦	-10.1589
前身	-10.1602
賛	-10.1604
窓	-10.1605
菅	-10.1606
ヤマ	-10.1606
作用	-10.1608
体重	-10.1612
長野	-10.162
最優秀	-10.163
行動	-10.1631
討	-10.1633
如	-10.1635
EX	-10.1643
不詳	-10.1647
縦	-10.1652
パーソナリティ	-10.1656
しょ	-10.166
直接	-10.1664
附属	-10.1679
ネットワーク	-10.1685
熊本県	-10.1689
箱	-10.1693
が可能	-10.1701
po	-10.1709
徳島県	-10.1709
東京大学	-10.1712
連隊	-10.1719
ネイ	-10.172
桂	-10.1729
違い	-10.173
Tr	-10.173
拝	-10.1731
IL	-10.1747
ディレクター	-10.1748
作業	-10.175
VE	-10.1751
と言われ	-10.1753
ヨン	-10.1755
ヴァル	-10.1758
集落	-10.1766
理事長	-10.1767
1920	-10.1769
定義	-10.1769
巣	-10.177
繁	-10.1772
免	-10.1776
1932	-10.1781
作り	-10.1786
スタッフ	-10.1787
ex	-10.1789
キャリア	-10.1791
高さ	-10.1791
新聞社	-10.1794
営業所	-10.1797
をはじめ	-10.1806
三菱	-10.1812
テニス	-10.1825
丁	-10.1826
を持ち	-10.1835
に就任した	-10.1839
審	-10.1842
局長	-10.1843
係	-10.1848
研	-10.1854
立候補	-10.1856
速度	-10.1859
1935	-10.1862
サウンド	-10.1865
クロス	-10.1877
ここ	-10.188
律	-10.1882
改め	-10.1889
栃木県	-10.1895
頃に	-10.1896
致	-10.191
合成	-10.1913
反対	-10.1917
に登場する	-10.1919
訓練	-10.1921
松山	-10.1922
木村	-10.1925
政権	-10.1935
主張	-10.1941
与えられ	-10.1941
インターネット	-10.1942
続く	-10.195
皮	-10.1953
トーナメント	-10.1956
に加入	-10.196
淡	-10.1974
磁	-10.1978
富山県	-10.1981
又	-10.1987
ブック	-10.1987
磨	-10.1988
プログラム	-10.1988
レーベル	-10.1989
に属し	-10.1991
修了	-10.1992
VI	-10.2001
排	-10.2001
金融	-10.2008
大会で	-10.2015
菌	-10.2017
乃	-10.2025
供	-10.2025
鋼	-10.2026
世帯	-10.2028
兵衛	-10.2029
弱	-10.2036
1934	-10.2039
建造	-10.2046
そこ	-10.2052
当駅	-10.2055
ction	-10.2057
停車	-10.206
露	-10.2063
ころ	-10.2065
ep	-10.2065
ブラン	-10.2066
IA	-10.2069
ies	-10.2072
盗	-10.2078
次男	-10.2087
障	-10.2093
総務	-10.2095
しゅ	-10.2097
ティック	-10.2098
ase	-10.21
学術	-10.2103
ance	-10.2107
泳	-10.2117
報道	-10.2118
コンサート	-10.2125
審査	-10.2126
ことになった	-10.2129
首相	-10.2132
停止	-10.2137
ドラフト	-10.214
【	-10.2141
】	-10.2146
晋	-10.2155
ck	-10.2157
概要	-10.2157
山口県	-10.2158
執筆	-10.2168
を持って	-10.2169
侍	-10.2171
育成	-10.2183
晶	-10.2186
腹	-10.219
先発	-10.219
は以下の通り	-10.2197
顧問	-10.2198
180	-10.22
えん	-10.22
エネルギー	-10.2204
駐車場	-10.221
row	-10.2215
億	-10.2216
に入る	-10.2216
覇	-10.2218
負け	-10.2222
基準	-10.2223
移管	-10.2226
陳	-10.2227
携	-10.2227
ウッド	-10.223
1928	-10.2231
傘下	-10.2234
アメリカン	-10.2235
周年記念	-10.2238
挑戦	-10.2238
沿い	-10.2245
くなる	-10.2245
払	-10.2249
Music	-10.2252
ウクライナ	-10.226
取扱	-10.2261
(#1	-10.2263
寧	-10.2266
索	-10.2268
連絡	-10.227
蘭	-10.2273
東日本	-10.2274
遺跡	-10.2276
披露	-10.228
軸	-10.2284
規定	-10.2287
んでいた	-10.2288
統一	-10.2292
乗車	-10.2294
パート	-10.2296
文書	-10.2297
治療	-10.2298
カメラ	-10.23
泊	-10.2302
サイド	-10.2321
に昇格	-10.2331
大学教授	-10.2333
空間	-10.2334
停留所	-10.2334
踊	-10.235
イラスト	-10.235
銅	-10.2356
大使	-10.2358
責任	-10.2364
昇格	-10.2366
保存	-10.2366
未来	-10.2367
彼ら	-10.2367
易	-10.2369
鹿児島県	-10.2373
対策	-10.2376
戦績	-10.2381
看護	-10.2384
策	-10.2389
旅行	-10.2389
仕様	-10.2394
ED	-10.2403
執	-10.2412
柱	-10.2413
▁Th	-10.2422
維	-10.2425
重要な	-10.2429
全長	-10.2431
生命	-10.2432
名誉	-10.2435
1933	-10.244
小惑星	-10.2442
合格	-10.2444
ブラック	-10.2446
踏	-10.2447
瀬戸	-10.2448
留学	-10.245
卿	-10.245
太田	-10.2453
LIVE	-10.2456
答	-10.246
自転車	-10.2467
到	-10.2471
揚	-10.2471
ライフ	-10.2474
大陸	-10.2474
券	-10.2488
裂	-10.2494
単独	-10.2496
整	-10.2496
小さな	-10.2498
安定	-10.2505
曹	-10.2505
ion	-10.2509
ome	-10.2511
*	-10.2511
加盟	-10.2512
徒	-10.2512
託	-10.2514
支持	-10.2515
スイス	-10.2516
詳細	-10.2525
ていない	-10.2526
名古屋市	-10.2527
小野	-10.2527
金属	-10.2529
機器	-10.2537
依	-10.2547
合計	-10.2551
▁Pro	-10.2553
リズム	-10.2554
なっている	-10.2569
800	-10.257
柴	-10.2582
淳	-10.2582
認められ	-10.2586
駅舎	-10.2588
わか	-10.2591
沈	-10.2591
無料	-10.2593
対戦	-10.261
ギャラリー	-10.2613
聴	-10.2622
肥	-10.2627
高速道路	-10.2633
ジェン	-10.2634
迫	-10.264
平和	-10.2641
ホン	-10.2644
ことが多い	-10.2644
斜	-10.2645
600	-10.265
職員	-10.265
蘇	-10.2654
桐	-10.2654
が存在する	-10.2659
しりつ	-10.2666
準優勝	-10.2668
そのまま	-10.2672
ページ	-10.268
ton	-10.2682
OP	-10.2685
削	-10.2685
藩主	-10.2686
分析	-10.2687
1929	-10.2689
阪神	-10.269
iz	-10.269
遅	-10.2698
二丁目	-10.2702
毒	-10.2704
行われ	-10.2707
票	-10.2709
であること	-10.2711
週間	-10.2712
広場	-10.2718
蒲	-10.272
放送局	-10.272
1931	-10.2727
貢献	-10.2734
宮崎	-10.2743
錦	-10.2744
袋	-10.2752
葬	-10.2763
ソ連	-10.2766
if	-10.2773
篠	-10.2775
唱	-10.2779
冊	-10.278
乾	-10.2781
扱い	-10.2784
設置された	-10.2792
ニャ	-10.2798
謝	-10.2812
FIFA	-10.2814
仏教	-10.2817
チェン	-10.2817
ice	-10.2822
訴	-10.2833
範	-10.2835
1924	-10.2838
棋	-10.2842
歩兵	-10.2848
獣	-10.2863
="2"|	-10.2864
cc	-10.2864
神経	-10.2873
準決勝	-10.2874
tic	-10.2874
交換	-10.2875
亮	-10.2878
特殊	-10.2878
之助	-10.2879
コンビ	-10.288
渋谷	-10.2882
嶋	-10.2896
マッチ	-10.2899
選択	-10.2905
おう	-10.2909
フィールド	-10.2911
童	-10.2911
会館	-10.2912
岩手県	-10.2922
青森県	-10.2922
尻	-10.2927
愛媛県	-10.2927
原題	-10.2934
こく	-10.2936
洗	-10.2937
きっかけ	-10.2942
コミュニティ	-10.2948
表彰	-10.2952
ワーク	-10.2967
1927	-10.2972
祀	-10.2974
▁あらすじ	-10.2983
ベトナム	-10.2984
浴	-10.2988
LOVE	-10.2988
ほん	-10.2989
分校	-10.2994
渓	-10.2996
刺	-10.3
互	-10.3007
共編	-10.3008
師団	-10.3008
もしくは	-10.3016
公開された	-10.3037
込まれ	-10.3039
描かれ	-10.3048
酸化	-10.3049
ジャケット	-10.3054
僕	-10.3057
を除く	-10.3062
誘	-10.3063
エピソード	-10.3068
楽器	-10.3073
with	-10.3083
緒	-10.3083
In	-10.3085
議長	-10.3094
参照	-10.3097
バラエティ	-10.3102
"|	-10.3117
原因	-10.3118
回衆議院議員総選挙	-10.3118
石川県	-10.3122
ark	-10.3127
該	-10.3129
民主	-10.313
小型	-10.3133
十字	-10.3143
アイルランド	-10.3145
禁	-10.3147
していない	-10.3151
キャスター	-10.3154
灯	-10.3156
短期大学	-10.3162
わせ	-10.3164
助手	-10.3165
犯	-10.3178
郊	-10.3179
購入	-10.318
徹	-10.318
ft	-10.3193
史上	-10.3195
大学名誉教授	-10.3196
成長	-10.3198
狩	-10.32
自己	-10.3201
ame	-10.3206
モスクワ	-10.3211
』、『	-10.3213
磐	-10.322
滋賀県	-10.3222
限り	-10.3226
収録曲	-10.3231
NI	-10.324
を超え	-10.3244
▁隣の駅	-10.3249
起用	-10.3251
求	-10.3254
旬	-10.3263
チャンピオン	-10.327
同盟	-10.3273
PC	-10.3276
ローズ	-10.3276
週刊	-10.3276
ジャンプ	-10.3277
支部	-10.3281
代表取締役社長	-10.3286
EP	-10.329
られていた	-10.3295
釜	-10.3299
体育館	-10.3311
電力	-10.3312
必	-10.3324
合わせ	-10.3335
演劇	-10.3335
退職	-10.3341
呼び	-10.3342
となって	-10.3343
増加	-10.3352
まだ	-10.3355
代表取締役	-10.3362
感染	-10.3363
幼稚園	-10.3368
プロダクション	-10.3374
1923	-10.3378
衆議院議員	-10.3381
ウェル	-10.3391
使用された	-10.3396
秋田県	-10.3402
広告	-10.3412
New	-10.3414
からなる	-10.3417
に敗れ	-10.3419
大分県	-10.3422
五郎	-10.3423
摂	-10.3426
Fr	-10.3428
松平	-10.343
紋	-10.3431
用語	-10.3431
移行	-10.3431
使われる	-10.3435
フットボール	-10.3443
1925	-10.3454
万人	-10.3456
高松	-10.346
を残し	-10.3466
祖父	-10.347
入門	-10.3474
棄	-10.3476
廷	-10.3478
敗退	-10.3482
朱	-10.3485
宋	-10.3486
°	-10.3489
河内	-10.3489
pl	-10.349
ソニー	-10.349
ソフトウェア	-10.3493
サポート	-10.3495
ユダヤ	-10.3496
別名	-10.35
練習	-10.3505
概	-10.3506
ris	-10.3506
ヒュー	-10.3509
リウス	-10.3516
免許	-10.3523
編入	-10.3534
震	-10.3536
伯爵	-10.3555
宰	-10.3567
ベルリン	-10.357
イヤー	-10.3572
柔道	-10.3581
改正	-10.3581
辰	-10.3582
勧	-10.3585
簡	-10.3593
再開	-10.3599
モノ	-10.36
耐	-10.36
猫	-10.36
新たに	-10.361
ファッション	-10.3613
ねん	-10.3616
から発売された	-10.3617
ここで	-10.3617
乙	-10.3617
計算	-10.3622
勲章	-10.3624
物理学	-10.363
ハンガリー	-10.363
JA	-10.3642
バンク	-10.3643
受章	-10.3644
トゥー	-10.3644
糖	-10.3646
貝	-10.365
中止	-10.365
ポルトガル	-10.3651
併設	-10.3655
設けられ	-10.3656
と対戦し	-10.3658
投資	-10.3665
千代	-10.3666
ood	-10.3669
||||	-10.3672
隣接	-10.3673
綾	-10.3674
少ない	-10.3674
裁判	-10.3684
可能な	-10.3689
とも呼ばれる	-10.3691
ることができる	-10.3691
虎	-10.3698
休止	-10.37
を集め	-10.37
順位	-10.3704
後継	-10.3719
作目	-10.3719
ブロック	-10.3721
にとって	-10.3728
ヴィン	-10.373
魏	-10.3732
▁交通アクセス	-10.3737
ェ	-10.3745
と考えられている	-10.3745
ちゃ	-10.3747
ジャック	-10.375
フランク	-10.375
役割	-10.3753
欧	-10.3753
ica	-10.3758
甘	-10.3759
SHI	-10.3767
頃から	-10.3769
規格	-10.377
YA	-10.3773
背景	-10.3779
詰	-10.3784
西側	-10.3785
取引	-10.3789
克	-10.3793
そこで	-10.3802
山形県	-10.3804
徴	-10.3811
OO	-10.3818
吸	-10.3821
を果たす	-10.3824
ペー	-10.3832
敷地	-10.3833
ギー	-10.3836
司会	-10.384
領域	-10.3842
決め	-10.3842
重複	-10.3846
謡	-10.385
推定	-10.3864
募	-10.387
AI	-10.3872
選抜	-10.3878
大学法学部	-10.3885
政党	-10.3886
コムーネ	-10.3887
天正	-10.3893
消滅	-10.3893
マスター	-10.3897
観音	-10.3899
あたり	-10.39
動画	-10.3903
衛星	-10.3906
ネーム	-10.391
男爵	-10.3912
陸上	-10.3913
誤	-10.392
国勢調査	-10.3923
ロサンゼルス	-10.3923
比較	-10.3935
木曜	-10.394
テスト	-10.3945
貸	-10.3945
委員長	-10.3956
テレビ番組	-10.3957
キリスト教	-10.396
ock	-10.3977
男女	-10.3978
隔	-10.3982
鈴	-10.3983
福井	-10.3984
▁Con	-10.3986
グレー	-10.3987
ロール	-10.3996
空軍	-10.4012
に関して	-10.4013
ぷ	-10.4014
開幕	-10.4015
書記	-10.4028
ワイド	-10.4038
軒	-10.404
ish	-10.4045
ようになる	-10.4046
UEFA	-10.4053
腕	-10.4054
最後	-10.4059
しょうがっこう	-10.4061
隣接する	-10.4068
執行	-10.4069
1922	-10.4076
トーク	-10.4077
DJ	-10.4081
dr	-10.4082
庁舎	-10.4093
珍	-10.4108
輩	-10.411
添	-10.4111
落ち	-10.4114
議会議員	-10.4114
減少	-10.412
批判	-10.412
検査	-10.4121
付属	-10.413
ory	-10.413
ach	-10.4135
硬	-10.4135
に選ばれた	-10.4144
威	-10.4147
閣	-10.4156
ヤング	-10.4169
各種	-10.4171
世代	-10.4173
コレクション	-10.4174
あまり	-10.4175
はじめ	-10.4181
ミング	-10.4184
これら	-10.4184
創刊	-10.4187
資本	-10.4188
装備	-10.4194
物質	-10.4198
崇	-10.4202
公認	-10.4203
恩	-10.4218
範囲	-10.4229
弟子	-10.4232
行われている	-10.424
▁駅構造	-10.4241
かつて存在した	-10.4242
振り	-10.4244
研修	-10.4248
獄	-10.425
団地	-10.4253
哉	-10.4255
ふく	-10.4257
退団	-10.4261
トヨタ	-10.4263
に分類される	-10.4263
ナショナル	-10.4263
リーダー	-10.4267
雇	-10.4273
フェン	-10.4274
を有する	-10.428
かず	-10.4282
潜	-10.4294
ゲイ	-10.4295
萩	-10.4308
ロバート	-10.4311
幻	-10.4311
追い	-10.4315
shi	-10.4325
ONE	-10.4329
らせ	-10.4341
宝塚	-10.4345
西洋	-10.4347
韓	-10.4351
実現	-10.436
合流	-10.4361
更新	-10.4372
岡崎	-10.4375
ence	-10.4377
普及	-10.4383
となっていた	-10.4387
尽	-10.4388
ルイス	-10.4391
惑星	-10.44
母親	-10.4401
午	-10.4409
抑	-10.441
注目	-10.4421
文献	-10.4423
体制	-10.4425
相談	-10.4426
ヘン	-10.4428
明らか	-10.443
リャ	-10.4449
電鉄	-10.4452
ニョ	-10.4456
閉鎖	-10.446
慶應義塾	-10.4473
目標	-10.4477
▁ディスコグラフィ	-10.4478
継続	-10.4479
ギリシャ	-10.4479
括	-10.4487
鷹	-10.4497
吸収	-10.4499
塾	-10.4499
例えば	-10.4502
長崎県	-10.4506
右衛門	-10.4508
捜査	-10.4513
嵐	-10.452
ミュージシャン	-10.4526
憲法	-10.4528
掛	-10.4533
著名な	-10.454
峡	-10.4553
学科卒業	-10.4558
末期	-10.456
蒸	-10.4561
合わせて	-10.4564
復活	-10.4565
和歌山県	-10.4568
出馬	-10.4574
vol	-10.4578
寒	-10.4578
しゅう	-10.4579
相撲	-10.4581
ベルギー	-10.4587
エンディングテーマ	-10.4599
con	-10.4603
療	-10.4604
中央区	-10.4619
として活躍	-10.462
で構成され	-10.4622
共演	-10.4623
山梨県	-10.4623
改修	-10.4624
書院	-10.4626
画像	-10.4627
粉	-10.4642
結合	-10.4644
授与	-10.4645
アシスタント	-10.4646
秦	-10.4647
スペース	-10.4648
移住	-10.4649
周囲	-10.4653
載	-10.4661
ture	-10.4663
▁駅周辺	-10.4663
珠	-10.4665
ごろ	-10.467
本塁打	-10.4675
豆	-10.4677
てしまった	-10.4682
対抗	-10.4682
マイケル	-10.4693
棒	-10.4702
に生まれた	-10.4703
2||0||	-10.4704
全域	-10.4704
東側	-10.4704
VER	-10.4705
共産党	-10.4706
あなた	-10.4707
通常盤	-10.4708
優秀	-10.4708
大学文学部	-10.4709
子ども	-10.4712
ox	-10.4714
喫	-10.4715
ファイル	-10.4721
共通	-10.4726
名の由来	-10.4729
臓	-10.4732
奈良県	-10.4734
説明	-10.4734
邸	-10.4745
使用される	-10.4747
と呼ぶ	-10.4748
TER	-10.4763
壊	-10.4765
再建	-10.4774
薄	-10.4776
あげ	-10.4777
||0||0||	-10.4792
収容	-10.4793
堺	-10.4796
〒	-10.4796
随	-10.4797
フィン	-10.4812
尋常小学校	-10.4813
帳	-10.4813
プラン	-10.4816
回転	-10.4819
耳	-10.482
land	-10.4824
発見された	-10.4834
弦	-10.4834
戒	-10.4842
市役所	-10.4843
深夜	-10.4844
借	-10.485
維持	-10.4854
銘	-10.4856
してきた	-10.4867
沖縄県	-10.4867
III	-10.4871
選挙区	-10.4883
新たな	-10.4883
陶	-10.4884
ショップ	-10.4884
イェ	-10.489
斗	-10.4893
ick	-10.4897
屯	-10.4902
マガジン	-10.4905
陥	-10.4907
晩	-10.492
翔	-10.4932
島根県	-10.4933
ウィル	-10.4949
統治	-10.4957
忍	-10.4971
制御	-10.4971
福井県	-10.4974
弓	-10.4976
コンクール	-10.4983
息	-10.4989
fr	-10.499
事業所	-10.4992
境内	-10.4998
ボード	-10.4999
著書	-10.5002
家臣	-10.5008
競馬場	-10.5011
禅	-10.5017
講座	-10.5021
っていない	-10.5025
デンマーク	-10.5026
行為	-10.5028
ターミナル	-10.5029
に任命され	-10.5036
買収	-10.5039
禁止	-10.5047
民間	-10.5048
ook	-10.5048
に本社を置く	-10.5063
隻	-10.5064
重量	-10.5065
火曜	-10.5067
痛	-10.5068
相続	-10.5069
通学区域	-10.5074
初回限定盤	-10.5074
を得て	-10.5082
絵画	-10.5087
クラシック	-10.5087
晃	-10.5089
に基づく	-10.5094
琴	-10.5095
トルコ	-10.5095
球団	-10.5098
垂	-10.5099
破壊	-10.5114
酵素	-10.5115
を含め	-10.5116
少なく	-10.5118
舟	-10.5119
扱	-10.512
駿	-10.5122
アニメーション	-10.5128
簡易	-10.513
始まり	-10.5133
退任	-10.5135
を流れる	-10.514
水曜	-10.514
background	-10.5142
了	-10.5148
佐々木	-10.5158
へ移籍	-10.5164
All	-10.5171
‐	-10.5171
会議員	-10.5171
監修	-10.5178
勢力	-10.5181
磯	-10.5189
AND	-10.5201
サイズ	-10.5205
ホワイト	-10.5205
手がけ	-10.5206
秘	-10.5211
鳥取県	-10.5216
台風	-10.5219
ドラゴン	-10.5222
することができる	-10.5222
行政区画	-10.5229
香川県	-10.524
短編	-10.5247
ヴェン	-10.5253
神話	-10.5258
開館	-10.5258
株式	-10.526
を目指し	-10.5262
金メダル	-10.5267
に仕え	-10.5279
ake	-10.5282
Japan	-10.5283
und	-10.5293
埋	-10.5293
境界	-10.5296
悲	-10.531
作られた	-10.5313
いくつかの	-10.5324
堤	-10.5331
透	-10.535
きゅう	-10.5351
灰	-10.5354
俳	-10.536
覆	-10.5368
ound	-10.5376
逮捕	-10.538
予備	-10.5382
フランス語	-10.5382
辻	-10.5384
墳	-10.5393
に師事	-10.5401
ron	-10.5403
ゾン	-10.5423
坪	-10.5423
愛知	-10.5428
血液型	-10.5429
を果たし	-10.5433
失敗	-10.5435
嗣	-10.5437
彰	-10.5439
これまで	-10.5439
保健	-10.5444
材料	-10.5446
に転じ	-10.5448
全米	-10.5449
尼	-10.5451
1908	-10.5468
わずか	-10.5478
支流	-10.5485
ちゅう	-10.5495
クイーン	-10.5496
ーニャ	-10.55
古典	-10.5506
得意	-10.5507
を表す	-10.5513
レコーディング	-10.5519
学院大学	-10.552
圭	-10.552
アマチュア	-10.5521
広がり	-10.5521
殺害	-10.553
戦略	-10.553
不動産	-10.553
警備	-10.5531
届	-10.5535
COM	-10.5535
融	-10.5546
國	-10.5552
を描いた	-10.5555
を得た	-10.5563
会計	-10.5564
改良	-10.5564
しばしば	-10.5566
伝え	-10.5571
||||||||||||	-10.5581
昼	-10.559
髪	-10.5597
ビッグ	-10.5598
要素	-10.5598
引退後	-10.5604
オペラ	-10.5605
親王	-10.5606
革	-10.5609
慶長	-10.5613
大韓民国	-10.5625
▁Un	-10.5626
感じ	-10.5635
探偵	-10.5638
強化	-10.5638
集配	-10.5651
ステーション	-10.5657
を通じて	-10.5669
在学中	-10.5676
教え	-10.5682
体験	-10.5684
幾	-10.5689
フィギュアスケート	-10.5701
JAPAN	-10.5701
共編著	-10.5702
史跡	-10.5704
Guitar	-10.5716
図書	-10.5721
徒歩約	-10.5724
に選出された	-10.573
況	-10.5732
ave	-10.5733
制限	-10.5748
Gr	-10.5758
ワシントン	-10.5762
単行本	-10.5762
職業	-10.5767
出走	-10.5769
カレッジ	-10.5772
を始める	-10.5774
侵	-10.5777
が存在し	-10.5779
調整	-10.5779
奏者	-10.5779
ことになる	-10.5785
資金	-10.5791
参謀	-10.5797
カリフォルニア州	-10.5798
膜	-10.5804
広域	-10.5809
の変遷	-10.581
ven	-10.5814
即位	-10.5816
准	-10.5819
債	-10.5825
塗	-10.5826
貯	-10.5828
アルゼンチン	-10.5829
比較的	-10.583
耕	-10.5837
ical	-10.5839
ビジョン	-10.5842
となっており	-10.5861
Web	-10.5867
さくら	-10.5868
競輪	-10.5868
多摩	-10.5875
歯科	-10.5875
まとめ	-10.5878
眠	-10.5878
誰	-10.588
椎	-10.59
度目の	-10.5911
匠	-10.5911
Qu	-10.5918
ユナイテッド	-10.5935
アレンジ	-10.5935
溝	-10.5936
青森	-10.5938
ホールディングス	-10.5946
提携	-10.5947
の武将	-10.5948
証明	-10.595
雀	-10.5955
掲	-10.5958
符	-10.5959
航空機	-10.5962
呼称	-10.597
宇都宮	-10.597
敦	-10.5972
慈	-10.5979
World	-10.5985
▁過去の	-10.5989
ようになり	-10.599
オフィス	-10.5992
1907	-10.5993
レストラン	-10.6001
栽培	-10.6004
僚	-10.6007
流域	-10.6008
常務	-10.6021
村が合併し	-10.6027
批評	-10.6032
居住	-10.6034
けんどう	-10.6034
に所属していた	-10.6047
生涯	-10.6052
合唱	-10.6055
ジェームズ	-10.6058
落選	-10.6066
170	-10.6067
石油	-10.6073
燃	-10.6076
官僚	-10.6077
á	-10.6079
フィンランド	-10.6084
卓	-10.6085
叔	-10.6086
屋敷	-10.6087
ボクシング	-10.6092
YouTube	-10.6096
戦国時代	-10.6108
性格	-10.611
▁通過する自治体	-10.6115
平安時代	-10.6117
ラジオ番組	-10.6119
繰り	-10.6124
▁個人成績	-10.6124
私立	-10.6127
授	-10.6128
業界	-10.6132
心理学	-10.6133
ゴールデン	-10.6135
普	-10.6146
国境	-10.6149
を加え	-10.6157
タクシー	-10.6167
左衛門	-10.6175
完了	-10.6181
見える	-10.6186
1906	-10.6189
艦隊	-10.6194
歳以上	-10.6202
掘	-10.6203
案内	-10.6204
環状	-10.6209
拡張	-10.6215
浜松	-10.6217
遷	-10.6221
に存在した	-10.6221
練	-10.6222
共訳	-10.6224
埼玉	-10.6224
▁路線データ	-10.6227
促	-10.6228
指揮者	-10.6232
博士課程	-10.6241
ウィーン	-10.6245
てくる	-10.6249
衛生	-10.6255
気候	-10.6258
中継局	-10.6267
旋	-10.6267
芦	-10.627
募集	-10.6277
表題曲	-10.6279
フィリピン	-10.6295
に入った	-10.6296
コミュニケーション	-10.6298
塞	-10.6301
整理	-10.6301
丈	-10.6303
ソビエト連邦	-10.6307
現存	-10.6315
協同組合	-10.6319
項目	-10.6326
当たり	-10.6331
澄	-10.6337
形状	-10.6337
自衛隊	-10.6342
停車場線	-10.6342
IDE	-10.6351
風景	-10.6352
在住	-10.6353
を見せ	-10.6353
胸	-10.6353
に貢献した	-10.6354
宣言	-10.6366
スコットランド	-10.6375
倫	-10.6385
を置く	-10.6391
楊	-10.6393
扱う	-10.6398
段階	-10.6402
じゅう	-10.6403
old	-10.6405
模様	-10.6407
1897	-10.6408
気象	-10.6411
も多い	-10.6423
茎	-10.643
潜水艦	-10.643
りょう	-10.6433
洪	-10.6436
ツォ	-10.6439
放射	-10.6444
а	-10.6452
モーター	-10.6452
ナレーション	-10.6458
災害	-10.6459
媒	-10.6468
傍	-10.6471
モンゴル	-10.6473
クラウ	-10.6476
ておらず	-10.649
堅	-10.6492
近畿	-10.6495
コーラス	-10.6499
慎	-10.6499
交番	-10.6502
トップチーム	-10.6503
繋	-10.6506
財政	-10.652
許可	-10.6521
暮らし	-10.6525
フィリップ	-10.6531
最終的に	-10.6539
ぜん	-10.6544
解放	-10.6545
逸	-10.6547
フィルム	-10.6551
ヘンリー	-10.6551
という意味	-10.6557
大使館	-10.6561
リチャード	-10.6563
迷	-10.6566
TOKYO	-10.6566
▁存命人物	-10.6567
本拠地	-10.6569
鳥取	-10.6571
りゅう	-10.6574
供給	-10.6577
降格	-10.659
日に行われた	-10.6591
機関車	-10.6593
献	-10.6606
祈	-10.6613
司令官	-10.6619
続いて	-10.6629
シアター	-10.6636
提案	-10.6653
付けられ	-10.6654
危険	-10.6657
創建	-10.6665
青春	-10.6665
ギリシア	-10.6669
遂	-10.6679
編著	-10.6682
3-0	-10.6683
ぽ	-10.6697
1909	-10.6698
美濃	-10.6699
先端	-10.6704
大きい	-10.6705
セリエ	-10.6706
およそ	-10.6707
国際空港	-10.6713
ってきた	-10.6715
貿易	-10.6719
デザイナー	-10.6719
スコット	-10.6725
東京都出身	-10.6728
ミュージカル	-10.6736
従五位下	-10.6737
ャ	-10.6741
負傷	-10.6743
投げ	-10.6748
森林	-10.6751
犯罪	-10.6754
覧	-10.6756
チャールズ	-10.6771
シカゴ	-10.6794
知識	-10.68
ü	-10.6804
菓子	-10.6806
止め	-10.681
音源	-10.6813
涼	-10.6819
カラオケ	-10.682
Instrumental	-10.6822
aka	-10.6827
昆	-10.6829
カトリック	-10.6833
栃	-10.6838
代藩主	-10.6848
を挙げた	-10.6849
に従事	-10.6849
繁殖	-10.6858
組み合わせ	-10.6864
ニュージーランド	-10.6875
視聴	-10.6879
邑	-10.6887
稿	-10.6895
6;"	-10.69
公式戦	-10.6908
四郎	-10.691
皇后	-10.6924
ノミネート	-10.6932
銭	-10.6933
宮崎県	-10.6938
銀河	-10.6941
困難	-10.6943
綬	-10.6948
1896	-10.6952
魂	-10.6955
ギュ	-10.6956
粒	-10.6964
補佐	-10.6974
潤	-10.698
ボーナス	-10.6982
込む	-10.6982
結び	-10.6983
函館	-10.6987
召	-10.6998
庶	-10.7
||2||	-10.7001
起源	-10.7011
鼻	-10.7016
印刷	-10.702
ドライバー	-10.7023
恭	-10.7025
みんな	-10.7027
沿岸	-10.7028
笹	-10.7028
唄	-10.7029
彫刻	-10.7039
嫡	-10.7045
湿	-10.7045
ノルウェー	-10.7049
否	-10.7049
承認	-10.7051
寝	-10.7055
ゃ	-10.7057
を起こし	-10.7062
妖	-10.7063
に任じられ	-10.7066
お笑い	-10.7067
発電所	-10.7069
▁世帯数と人口	-10.7075
箇所	-10.708
秘密	-10.7081
コメディ	-10.7089
次いで	-10.709
臨時	-10.7091
姫路	-10.7092
足利	-10.7093
率いる	-10.7095
ピュ	-10.7097
9:00	-10.7114
欲	-10.7123
学校法人	-10.7124
▁詳細情報	-10.7128
槻	-10.7139
赴	-10.7162
騒	-10.7163
勉	-10.7164
刈	-10.718
狂	-10.7192
貧	-10.7203
鍋	-10.7219
怒	-10.7246
擁	-10.725
о	-10.7259
簿	-10.7267
藍	-10.7293
隷	-10.7312
挿	-10.7324
茨	-10.7353
幡	-10.7399
却	-10.7422
奴	-10.7426
橘	-10.7428
★	-10.7452
《	-10.7463
》	-10.7464
苗	-10.7468
讃	-10.7487
拳	-10.7502
庵	-10.7514
償	-10.7519
央	-10.7519
猿	-10.7525
嶺	-10.7526
暮	-10.7533
淵	-10.7536
靖	-10.7539
班	-10.759
脂	-10.7648
崩	-10.7701
悠	-10.771
鐘	-10.7737
牟	-10.7743
ぴ	-10.7801
柔	-10.7805
煙	-10.7815
訓	-10.7842
撤	-10.7881
麓	-10.789
趙	-10.7891
偽	-10.7893
熟	-10.7894
嫌	-10.7941
謙	-10.7943
軟	-10.7991
詳	-10.7992
釣	-10.7995
賃	-10.7999
緩	-10.8011
販	-10.8015
郭	-10.8016
掃	-10.8017
戯	-10.8037
訂	-10.8055
附	-10.806
鳳	-10.8068
鴨	-10.8091
{	-10.8104
慮	-10.8124
渋	-10.8138
噴	-10.8186
桁	-10.8226
胡	-10.8244
殖	-10.8255
賜	-10.8277
奨	-10.8285
嫁	-10.8289
湘	-10.8337
遼	-10.8348
秩	-10.839
停	-10.8394
即	-10.8398
慣	-10.8402
辛	-10.8413
麦	-10.8435
播	-10.8443
控	-10.8491
~	-10.8495
握	-10.8508
壇	-10.8543
烏	-10.856
猪	-10.8566
薫	-10.857
皆	-10.8572
伐	-10.8592
_	-10.8634
旨	-10.8638
и	-10.8639
縄	-10.8656
宜	-10.8661
努	-10.8666
昔	-10.8668
孤	-10.8672
燕	-10.8682
撮	-10.8688
凡	-10.8739
篤	-10.8743
硫	-10.8747
霧	-10.8779
樽	-10.8784
尿	-10.8819
衰	-10.8865
鼓	-10.8865
悟	-10.8878
俣	-10.8888
聡	-10.8894
預	-10.8904
羊	-10.8921
屈	-10.8936
鷲	-10.8947
楼	-10.898
紛	-10.8982
抽	-10.8998
掌	-10.9008
α	-10.9012
━	-10.9012
諭	-10.9016
肩	-10.9075
寮	-10.9086
委	-10.91
軌	-10.9105
勅	-10.912
瓦	-10.9144
遇	-10.9157
尋	-10.9157
偏	-10.9163
悩	-10.9176
−	-10.9182
狙	-10.9195
湊	-10.9215
催	-10.9218
履	-10.9219
腫	-10.9227
淀	-10.9259
肺	-10.9267
謎	-10.9277
q	-10.933
誇	-10.937
往	-10.9444
轄	-10.9452
鞍	-10.9465
遭	-10.9475
勘	-10.9478
籠	-10.9486
涙	-10.9494
盆	-10.9511
衝	-10.9511
牝	-10.952
頻	-10.9531
’	-10.9539
墨	-10.9549
謀	-10.9576
隅	-10.958
旦	-10.9608
岬	-10.9615
稼	-10.9623
孔	-10.9641
—	-10.969
芽	-10.971
鎖	-10.9712
暫	-10.9744
楠	-10.9754
己	-10.9754
扇	-10.9772
洛	-10.9792
傾	-10.9804
臼	-10.9807
罰	-10.9817
í	-10.9882
阻	-10.9884
肝	-10.9886
窪	-10.9886
惑	-10.9893
但	-10.9917
獲	-10.9956
@	-10.9989
幣	-11.0012
蓋	-11.0037
懐	-11.0053
魅	-11.0081
懸	-11.0092
漫	-11.0094
厩	-11.01
ä	-11.0109
衡	-11.0116
е	-11.0126
癌	-11.0129
汚	-11.0136
偶	-11.0174
廣	-11.0178
н	-11.0228
殻	-11.0234
腸	-11.024
畜	-11.0244
跳	-11.0272
ó	-11.0281
拍	-11.0327
泥	-11.0405
后	-11.0414
}	-11.0423
忘	-11.043
虹	-11.0445
蛇	-11.0518
滋	-11.0533
繊	-11.0539
捨	-11.0546
於	-11.0562
〔	-11.0602
〕	-11.061
帆	-11.0637
暁	-11.0643
條	-11.0643
栖	-11.0645
搬	-11.065
鄭	-11.0659
斑	-11.0674
賊	-11.0674
候	-11.0689
蜂	-11.0711
烈	-11.073
甥	-11.0741
顧	-11.076
迎	-11.0768
鶏	-11.0788
炉	-11.0826
舶	-11.0863
ö	-11.0864
夷	-11.0868
困	-11.0888
勃	-11.09
均	-11.0921
胤	-11.0929
杵	-11.093
鮮	-11.0955
р	-11.0963
挟	-11.0966
棚	-11.0968
ā	-11.0989
茅	-11.1005
朋	-11.1018
怖	-11.1083
曾	-11.1087
俺	-11.109
ァ	-11.1148
灘	-11.1158
綿	-11.1171
浸	-11.1266
萌	-11.13
隈	-11.1315
般	-11.1319
虚	-11.132
腰	-11.135
誉	-11.1378
舗	-11.1391
粟	-11.1392
丞	-11.1395
猟	-11.1408
礁	-11.1408
猛	-11.1425
巳	-11.1448
遣	-11.1451
醸	-11.1458
幽	-11.1487
墜	-11.1512
誓	-11.1544
卸	-11.1549
畠	-11.1559
耶	-11.1581
樋	-11.1583
揮	-11.1628
紗	-11.1646
呈	-11.1658
粘	-11.1688
樺	-11.1757
媛	-11.1771
徐	-11.1781
需	-11.1785
鋭	-11.1788
杜	-11.1826
杏	-11.1837
柿	-11.1865
危	-11.1876
捜	-11.1891
尺	-11.1896
汽	-11.1907
眞	-11.1916
瞬	-11.194
肢	-11.1944
拡	-11.195
幌	-11.1998
粧	-11.1998
註	-11.2009
雌	-11.2016
看	-11.2027
措	-11.206
躍	-11.2063
疫	-11.2069
寸	-11.211
泣	-11.2169
暖	-11.2182
斬	-11.2207
笛	-11.2207
股	-11.2225
褒	-11.2232
舌	-11.2233
闇	-11.2243
苑	-11.226
陀	-11.2287
ヂ	-11.2309
潟	-11.2309
慢	-11.2322
梶	-11.2323
舘	-11.2327
腐	-11.2343
鎌	-11.2347
哀	-11.2351
湧	-11.2384
悦	-11.2389
逝	-11.2426
逢	-11.2435
忌	-11.2456
凍	-11.247
扉	-11.2476
慕	-11.2485
狼	-11.2485
渕	-11.2495
枢	-11.2519
蓄	-11.2526
佑	-11.2534
是	-11.2537
累	-11.2537
酔	-11.2618
霞	-11.2626
壌	-11.2631
傑	-11.2691
è	-11.2692
燥	-11.2737
毅	-11.2781
釧	-11.2783
串	-11.2794
弧	-11.2794
郵	-11.2828
朴	-11.2829
緯	-11.2831
綴	-11.2865
偉	-11.2871
荻	-11.2889
箕	-11.29
儒	-11.2917
胴	-11.2939
偵	-11.2962
俵	-11.3064
廊	-11.3074
壮	-11.3082
閲	-11.3082
欄	-11.309
玲	-11.3117
瞳	-11.3137
斐	-11.3146
葵	-11.3157
邪	-11.3159
祇	-11.3171
濱	-11.3173
妊	-11.3228
粛	-11.3254
熙	-11.3282
學	-11.3303
鉛	-11.3319
驚	-11.3325
揃	-11.3333
鍵	-11.3357
β	-11.3359
蒼	-11.3363
滞	-11.3365
稀	-11.3367
迦	-11.3518
冨	-11.3525
ォ	-11.3526
с	-11.3539
虜	-11.3541
鳩	-11.3555
漠	-11.356
碧	-11.3564
婿	-11.3584
蝶	-11.3611
蕭	-11.3626
桓	-11.3634
穀	-11.3645
魯	-11.3645
紡	-11.3649
鞭	-11.3649
峯	-11.3659
鍛	-11.3663
粋	-11.3684
匹	-11.3699
貢	-11.3715
檀	-11.3728
爾	-11.3737
睦	-11.3745
懲	-11.3754
歓	-11.3766
ぃ	-11.3769
獅	-11.3773
韻	-11.3775
揖	-11.3777
顎	-11.3832
虐	-11.3832
胞	-11.3856
ぺ	-11.3864
楚	-11.3883
隋	-11.3898
廠	-11.3902
崖	-11.3908
萬	-11.3915
彫	-11.393
蒙	-11.3951
帖	-11.3956
疎	-11.396
袖	-11.3971
瓶	-11.4001
⇒	-11.4005
鴻	-11.401
拘	-11.4012
扶	-11.4016
臭	-11.4023
劣	-11.4029
絹	-11.4051
宴	-11.4075
ヲ	-11.4083
詠	-11.4085
к	-11.4101
椿	-11.4103
抄	-11.4112
楕	-11.4138
腔	-11.4138
撰	-11.4144
曇	-11.4177
廻	-11.4184
煮	-11.4188
瑠	-11.4211
冒	-11.423
嘱	-11.4239
棲	-11.4248
跨	-11.4252
膝	-11.4257
苫	-11.4257
惣	-11.4281
汁	-11.4315
黙	-11.4328
靴	-11.4328
慰	-11.4344
諱	-11.4344
в	-11.4395
喪	-11.4447
契	-11.4461
曜	-11.4474
ا	-11.4501
寅	-11.4504
鋳	-11.4517
甚	-11.4531
酷	-11.4535
\	-11.4574
椅	-11.459
刃	-11.4595
巴	-11.4599
т	-11.4599
兆	-11.4629
騨	-11.4643
巧	-11.4645
櫻	-11.4648
哨	-11.4655
呪	-11.4671
績	-11.4716
挑	-11.4738
瘍	-11.4749
捧	-11.4752
л	-11.4759
藝	-11.4766
揺	-11.4768
励	-11.4772
咸	-11.478
帽	-11.4782
焦	-11.4794
裸	-11.4803
漆	-11.481
僅	-11.4817
蹴	-11.4817
窟	-11.4834
胆	-11.4859
圓	-11.486
潔	-11.4866
伽	-11.4871
莉	-11.489
奮	-11.4911
擬	-11.4923
膨	-11.493
吏	-11.4932
腺	-11.4944
郁	-11.4947
鐵	-11.4952
泌	-11.4987
珂	-11.5007
豚	-11.5009
吐	-11.5018
企	-11.5071
瀧	-11.5071
絡	-11.5078
稚	-11.5095
彗	-11.5098
剥	-11.5102
廟	-11.511
盾	-11.5117
函	-11.5123
窯	-11.5165
渉	-11.52
黎	-11.5204
腎	-11.5211
髄	-11.5236
脅	-11.524
胎	-11.5263
診	-11.5315
帥	-11.5319
亘	-11.5332
榎	-11.5334
胃	-11.5346
択	-11.5357
擢	-11.5359
絞	-11.5371
敢	-11.5381
遥	-11.5381
藻	-11.5483
仰	-11.5504
鰭	-11.5523
隼	-11.5546
鱗	-11.5558
畳	-11.5561
à	-11.5701
犠	-11.5716
翁	-11.5716
麺	-11.5729
頸	-11.5737
戚	-11.5749
嬢	-11.5775
侶	-11.5791
淑	-11.5814
糧	-11.5816
汲	-11.5819
裔	-11.583
廉	-11.583
究	-11.5843
菩	-11.5863
牙	-11.5881
尹	-11.5895
ぁ	-11.5895
培	-11.591
酢	-11.5916
零	-11.5923
槽	-11.5934
錯	-11.5949
拾	-11.5955
牽	-11.5992
壱	-11.5994
菓	-11.5999
鵜	-11.601
駄	-11.6039
尖	-11.6071
捉	-11.6119
悼	-11.6127
稔	-11.6127
勾	-11.6129
菱	-11.6164
憩	-11.618
閥	-11.6191
漏	-11.6202
葺	-11.6221
凱	-11.6232
爪	-11.6237
璃	-11.6248
穏	-11.6256
撫	-11.6269
壬	-11.6275
囚	-11.6286
憧	-11.6318
剰	-11.6324
堆	-11.6389
膳	-11.6417
斯	-11.6419
牲	-11.6458
畔	-11.6464
冶	-11.6508
閑	-11.6511
肌	-11.6516
錬	-11.6594
砕	-11.6625
畿	-11.6653
唆	-11.6673
埴	-11.6679
凝	-11.6684
嶽	-11.671
漂	-11.6718
牡	-11.6732
頁	-11.675
盲	-11.6778
吊	-11.6795
娠	-11.6798
叩	-11.6841
諫	-11.689
醤	-11.6904
疾	-11.6915
趣	-11.6917
ヵ	-11.6942
枯	-11.6945
紳	-11.6945
縫	-11.6956
乏	-11.6959
襄	-11.6976
槍	-11.6982
脊	-11.7006
堰	-11.702
鉢	-11.7032
唇	-11.7061
髙	-11.7067
患	-11.7071
稜	-11.7085
漬	-11.7132
塊	-11.7138
餅	-11.7144
譚	-11.7153
宍	-11.7159
坐	-11.7161
徽	-11.7164
汐	-11.7167
癒	-11.717
巌	-11.7173
惟	-11.7182
缶	-11.7191
榊	-11.7194
砦	-11.7197
妨	-11.72
頓	-11.7224
慧	-11.7227
聘	-11.7257
樫	-11.726
枕	-11.7275
曳	-11.7293
戴	-11.7326
諡	-11.735
μ	-11.735
蔭	-11.7362
惨	-11.7368
玩	-11.7395
董	-11.7407
汗	-11.741
♪	-11.741
崔	-11.7416
紹	-11.743
浙	-11.7447
窒	-11.745
杭	-11.7456
酵	-11.7463
峨	-11.7465
誕	-11.7508
噂	-11.7526
梓	-11.7539
喉	-11.7542
倭	-11.7544
庸	-11.7588
稽	-11.76
婆	-11.7644
檜	-11.765
叶	-11.7653
硝	-11.7656
責	-11.7665
遍	-11.7666
喰	-11.7675
痕	-11.7681
狗	-11.7706
醍	-11.7734
叫	-11.7744
馴	-11.7747
醐	-11.7772
惧	-11.7848
貌	-11.7851
袁	-11.7851
欽	-11.7854
傘	-11.7887
﨑	-11.7899
遡	-11.7902
曰	-11.7931
哺	-11.7947
蜜	-11.8024
刷	-11.803
飽	-11.804
讐	-11.8063
狐	-11.8082
惜	-11.8098
剖	-11.8098
暇	-11.8102
賭	-11.8115
禰	-11.813
翅	-11.816
揆	-11.8222
琵	-11.8256
紺	-11.8292
琶	-11.8296
允	-11.8299
吟	-11.8309
喬	-11.8359
憂	-11.8369
鮎	-11.8456
宕	-11.8463
迅	-11.8513
閏	-11.854
肪	-11.8551
汎	-11.8551
盟	-11.8562
貼	-11.8568
禎	-11.8571
殆	-11.8592
蔡	-11.8598
灌	-11.8619
嘘	-11.8619
翻	-11.8645
詣	-11.8646
肖	-11.8647
其	-11.8674
ぇ	-11.8688
ç	-11.8695
亨	-11.8702
芥	-11.8702
棺	-11.8705
皿	-11.8705
擦	-11.8747
餌	-11.8761
翠	-11.8778
†	-11.8799
渚	-11.8844
壺	-11.8855
邱	-11.8872
齋	-11.8883
叡	-11.8886
儲	-11.8893
泡	-11.8901
眺	-11.8918
ヅ	-11.8925
遮	-11.8932
櫛	-11.8954
〇	-11.8964
裳	-11.8982
叉	-11.9003
燈	-11.9014
า	-11.9021
薇	-11.905
縛	-11.9064
奔	-11.9118
麟	-11.9118
←	-11.9147
鷺	-11.9172
坑	-11.9176
蛍	-11.9197
絆	-11.9208
搭	-11.9226
錐	-11.9245
梱	-11.9249
嵯	-11.9256
聯	-11.9256
嚢	-11.9274
懇	-11.9281
宛	-11.9296
粗	-11.9332
楓	-11.9351
据	-11.9366
孟	-11.9369
于	-11.9374
寂	-11.9392
砺	-11.9407
飢	-11.9421
毘	-11.9421
卑	-11.9436
嘆	-11.947
仔	-11.9473
姻	-11.9488
戊	-11.9488
屏	-11.9488
玖	-11.95
酬	-11.9507
蚕	-11.9515
榴	-11.9526
雁	-11.9537
團	-11.9563
抹	-11.9594
濁	-11.9597
●	-11.9616
只	-11.9628
盧	-11.9639
桶	-11.9639
諾	-11.965
頑	-11.965
把	-11.9654
鯨	-11.9666
薔	-11.9704
隙	-11.9734
骸	-11.9777
■	-11.9777
凌	-11.9784
會	-11.9804
緊	-11.9817
殉	-11.9838
験	-11.9848
租	-11.9861
É	-11.9862
輌	-11.9873
欺	-11.9889
渦	-11.9893
婁	-11.9904
捷	-11.9908
甫	-11.9928
升	-11.9947
蟹	-11.9963
詐	-11.9983
朔	-11.9986
匡	-11.9994
奄	-12.0006
棘	-12.0018
薨	-12.0026
拒	-12.0033
賠	-12.0089
赦	-12.0097
塵	-12.0097
茜	-12.0109
賑	-12.0141
坦	-12.0153
疲	-12.0165
ī	-12.0173
凶	-12.0177
д	-12.0181
噌	-12.0193
輿	-12.0205
й	-12.0217
邊	-12.0225
睡	-12.0237
拉	-12.0245
窮	-12.0249
ū	-12.0261
瓜	-12.0273
崗	-12.0294
梗	-12.0306
麿	-12.0355
碁	-12.0358
∶	-12.0379
旺	-12.0408
溜	-12.0424
卯	-12.0437
壽	-12.0445
淮	-12.0457
愚	-12.0498
彌	-12.0515
祠	-12.0527
鍾	-12.0536
錫	-12.0573
潰	-12.0581
穫	-12.0594
姪	-12.0602
昨	-12.0602
摘	-12.0618
ل	-12.0636
倣	-12.064
$	-12.0648
眉	-12.0652
按	-12.0657
矩	-12.0686
·	-12.0686
箇	-12.07
舷	-12.0716
∞	-12.0733
肇	-12.0741
扁	-12.0758
賓	-12.0766
炊	-12.0771
莫	-12.0779
蜀	-12.0783
綻	-12.0788
杖	-12.0796
芹	-12.0809
寵	-12.0847
♥	-12.0878
埼	-12.0932
挺	-12.0938
諮	-12.0973
佛	-12.0986
恥	-12.099
購	-12.099
ú	-12.1016
陝	-12.1025
逐	-12.1042
牌	-12.1046
м	-12.1082
榛	-12.1126
厨	-12.113
喧	-12.1138
蝦	-12.116
嵩	-12.1178
鬱	-12.1223
站	-12.1223
猶	-12.1285
勁	-12.1317
填	-12.1321
肘	-12.133
у	-12.1384
逓	-12.1407
鋸	-12.1411
桟	-12.1425
و	-12.1452
穆	-12.1457
叢	-12.1459
ร	-12.1516
ゥ	-12.1532
粕	-12.1557
渠	-12.1562
柵	-12.1571
雛	-12.1589
姜	-12.1617
沸	-12.1682
址	-12.1682
萼	-12.1695
昧	-12.1705
款	-12.171
此	-12.1714
弐	-12.1752
夭	-12.1757
庚	-12.1799
宙	-12.1808
塘	-12.1818
挨	-12.1837
拶	-12.1846
暑	-12.1846
殊	-12.1849
柚	-12.1856
凸	-12.1889
š	-12.1899
埠	-12.1908
ñ	-12.1918
藪	-12.1941
謁	-12.1946
拐	-12.2013
辱	-12.2018
悔	-12.2018
騰	-12.2023
薩	-12.2047
น	-12.2081
瑛	-12.211
ゞ	-12.213
圳	-12.2164
詔	-12.2168
楢	-12.2193
雍	-12.2213
芋	-12.2242
^	-12.2242
嬉	-12.2257
ن	-12.2267
妄	-12.2296
娯	-12.2301
萱	-12.2326
咽	-12.2331
賄	-12.2341
醒	-12.2341
紘	-12.2356
瀋	-12.2361
挫	-12.2411
裾	-12.2411
云	-12.2421
荊	-12.2431
峻	-12.2431
酪	-12.2446
祷	-12.2461
濫	-12.2471
鵬	-12.2476
蕉	-12.2481
螺	-12.2486
汝	-12.2516
鉾	-12.2517
兎	-12.2552
竪	-12.2562
縞	-12.2572
霜	-12.2577
蓬	-12.2593
鯉	-12.2603
跋	-12.2608
耆	-12.2613
矮	-12.2623
錠	-12.2628
梵	-12.2634
傳	-12.2634
滴	-12.2644
實	-12.2654
矯	-12.2659
矛	-12.2674
蹟	-12.268
廿	-12.2705
癖	-12.2736
銚	-12.2737
嘩	-12.2741
─	-12.2773
乞	-12.2788
茉	-12.2794
琢	-12.2814
紐	-12.282
遽	-12.2835
掴	-12.2835
潭	-12.2835
煎	-12.2888
梯	-12.2898
朽	-12.2898
囃	-12.2935
匿	-12.2945
蕃	-12.295
暢	-12.2951
蹄	-12.3004
艶	-12.3014
伍	-12.302
愁	-12.3068
△	-12.3078
摺	-12.3078
諦	-12.311
苅	-12.3111
邉	-12.3138
喚	-12.3148
嶼	-12.3148
惹	-12.3153
▲	-12.3154
欣	-12.3154
鯖	-12.3159
殷	-12.317
吻	-12.3197
祢	-12.3202
或	-12.3224
來	-12.3224
匂	-12.3229
馮	-12.3229
槇	-12.323
冥	-12.3333
濠	-12.3339
溢	-12.3366
侠	-12.3377
迂	-12.3399
彙	-12.3399
凛	-12.3405
庇	-12.3438
嘴	-12.3438
妓	-12.3455
楯	-12.3482
彭	-12.3488
疆	-12.3516
♡	-12.3533
盃	-12.3544
渥	-12.3567
曼	-12.3572
踪	-12.3595
韮	-12.364
г	-12.3646
綺	-12.3668
焉	-12.3674
γ	-12.3685
芭	-12.3685
閃	-12.3685
鼎	-12.3691
殴	-12.3713
巫	-12.3737
仇	-12.3742
畝	-12.3754
č	-12.376
砥	-12.3771
昏	-12.3771
詮	-12.3776
諜	-12.3805
繕	-12.3811
′	-12.3834
賦	-12.3839
堯	-12.3845
爺	-12.3857
鸞	-12.3857
某	-12.3863
巾	-12.3863
鄧	-12.3892
痴	-12.3915
ã	-12.3915
溺	-12.3938
傅	-12.3938
ر	-12.3939
م	-12.3956
蘆	-12.3968
挽	-12.3968
憑	-12.3974
惠	-12.398
麹	-12.4015
隕	-12.4015
丙	-12.4038
凹	-12.405
綜	-12.4062
苞	-12.4073
礫	-12.4103
葦	-12.4109
俸	-12.4121
應	-12.4121
靭	-12.4127
槌	-12.4127
禍	-12.4145
采	-12.4151
噺	-12.4175
爬	-12.4175
瞭	-12.418
┃	-12.4181
翰	-12.4192
爽	-12.4193
弔	-12.4234
鍼	-12.4241
榮	-12.4271
煉	-12.4277
轟	-12.4283
勒	-12.4301
栓	-12.4313
妥	-12.4343
卜	-12.4343
豫	-12.4355
抵	-12.4367
恨	-12.4379
歪	-12.438
汰	-12.4429
漑	-12.4435
髭	-12.4453
氾	-12.4502
魁	-12.4515
涌	-12.4527
脩	-12.4558
噛	-12.4577
堪	-12.4577
菖	-12.4577
謳	-12.462
椋	-12.4633
栽	-12.4645
荏	-12.4652
叛	-12.4657
扮	-12.467
痺	-12.467
鮫	-12.4671
ي	-12.4671
蛮	-12.4721
蔚	-12.4778
喩	-12.4803
絢	-12.4816
鞘	-12.4822
鼠	-12.4822
曙	-12.4829
墾	-12.4835
憎	-12.4835
餓	-12.4854
鈍	-12.4867
漱	-12.4867
煕	-12.4886
謹	-12.4892
亥	-12.4893
范	-12.4899
橿	-12.4918
逗	-12.4918
橙	-12.4963
兜	-12.4964
堕	-12.4976
忙	-12.5009
灸	-12.5009
ぢ	-12.5041
罠	-12.5041
馳	-12.5061
丼	-12.5067
與	-12.5113
辿	-12.5146
罹	-12.5159
â	-12.5173
侑	-12.5186
苔	-12.5192
碩	-12.5199
妾	-12.5205
擲	-12.5245
嗜	-12.5278
芙	-12.5278
憶	-12.5316
牢	-12.5332
琳	-12.5352
汪	-12.5359
彬	-12.5379
貰	-12.5386
而	-12.5392
耀	-12.5399
偕	-12.5399
遵	-12.5412
犀	-12.542
я	-12.5433
舵	-12.5467
慌	-12.548
淫	-12.5494
惚	-12.5501
聚	-12.5535
咋	-12.5563
疏	-12.5576
礎	-12.5595
鎧	-12.5597
諧	-12.5597
蒔	-12.5597
弼	-12.5624
蹊	-12.5624
哈	-12.5638
濡	-12.5659
渤	-12.5735
険	-12.5739
罷	-12.5749
璋	-12.5777
糠	-12.5778
ы	-12.5813
ß	-12.582
怠	-12.5869
緋	-12.5876
堵	-12.5883
蔣	-12.5883
姦	-12.589
藏	-12.5898
ł	-12.5926
漸	-12.5933
倶	-12.5933
蓉	-12.594
鰐	-12.5976
С	-12.6026
塙	-12.6041
ć	-12.6055
韋	-12.6083
ь	-12.6091
懿	-12.6105
肯	-12.6113
狛	-12.612
捻	-12.6127
薛	-12.6134
雫	-12.6135
渇	-12.6163
呑	-12.62
荼	-12.6207
腿	-12.6222
蔽	-12.6222
薗	-12.6222
酉	-12.6222
厄	-12.6229
舜	-12.6251
ı	-12.6259
肋	-12.6295
蕊	-12.6302
輯	-12.631
ô	-12.6318
祓	-12.634
曖	-12.6362
纏	-12.6369
阮	-12.6377
π	-12.6377
皐	-12.6392
飴	-12.6392
薙	-12.6392
墟	-12.6407
胚	-12.6414
σ	-12.6429
娼	-12.6474
溪	-12.6474
漕	-12.6504
凰	-12.655
湛	-12.6572
渾	-12.6587
旛	-12.661
傭	-12.6656
蕨	-12.6656
濤	-12.6664
п	-12.6695
璧	-12.6733
蛭	-12.6749
虞	-12.6764
ก	-12.6772
誅	-12.6779
窩	-12.6818
鋒	-12.6826
冴	-12.6842
ê	-12.6842
耗	-12.6881
批	-12.6892
碓	-12.6896
ε	-12.6904
ب	-12.6928
綏	-12.7023
ั	-12.7023
酎	-12.7023
嘗	-12.7031
糾	-12.7038
掾	-12.7038
窺	-12.7046
孵	-12.7055
縣	-12.7078
隘	-12.7094
ч	-12.7095
穣	-12.711
б	-12.7127
篭	-12.715
膠	-12.7158
諒	-12.7167
臥	-12.7191
宵	-12.7199
衙	-12.7215
襟	-12.7223
析	-12.7227
隧	-12.7248
饉	-12.7255
遙	-12.7256
ø	-12.7256
이	-12.7264
蛋	-12.7272
刹	-12.7272
怜	-12.728
這	-12.7296
岑	-12.7321
劾	-12.7337
堡	-12.7353
柑	-12.7354
凪	-12.7354
猷	-12.7403
潘	-12.7444
腱	-12.7453
怨	-12.7461
机	-12.7461
披	-12.7468
梢	-12.7527
賈	-12.7536
膏	-12.7561
姶	-12.7578
獨	-12.7578
蔦	-12.7611
證	-12.7611
峙	-12.7619
頬	-12.7628
เ	-12.7628
狸	-12.7637
梧	-12.7637
丑	-12.7645
炒	-12.7679
‘	-12.7687
釘	-12.7696
濯	-12.7696
勿	-12.7696
斧	-12.7696
昂	-12.7739
膵	-12.7747
晦	-12.7781
閤	-12.779
塀	-12.7807
袴	-12.7824
陪	-12.7824
冀	-12.785
珪	-12.785
•	-12.785
ง	-12.7876
疹	-12.7876
อ	-12.7876
戎	-12.7893
且	-12.7893
佃	-12.7893
餐	-12.7936
馨	-12.7937
訛	-12.7945
蔓	-12.7945
煌	-12.7954
ë	-12.7954
М	-12.7963
寡	-12.7971
坡	-12.7971
脆	-12.798
榜	-12.798
珊	-12.8015
λ	-12.8015
甕	-12.8033
暉	-12.8042
嬪	-12.8059
姚	-12.8112
騙	-12.8121
輛	-12.8139
痢	-12.8174
姑	-12.8192
巽	-12.8192
愉	-12.8237
剃	-12.8254
妬	-12.8255
萊	-12.8255
祚	-12.8272
嬰	-12.8291
冗	-12.8318
頌	-12.8318
廓	-12.8336
薦	-12.8344
δ	-12.8345
游	-12.8354
寓	-12.8354
搾	-12.8363
毀	-12.8372
箏	-12.8381
芯	-12.8436
寇	-12.8454
糞	-12.8472
ส	-12.8482
з	-12.85
்	-12.851
ย	-12.8519
А	-12.8519
檎	-12.8537
岱	-12.8547
埔	-12.8556
匈	-12.8564
趾	-12.8565
沃	-12.862
櫓	-12.8621
⇔	-12.863
屑	-12.8639
閻	-12.8658
蕎	-12.8667
鹸	-12.8667
蔑	-12.8695
邇	-12.8695
麒	-12.8705
塑	-12.8761
憐	-12.879
å	-12.8828
宦	-12.8894
蝋	-12.8894
裴	-12.8895
赫	-12.8914
ा	-12.8914
娶	-12.8923
ν	-12.8952
喝	-12.8961
畷	-12.8981
德	-12.8991
薪	-12.8991
氣	-12.8991
К	-12.9
韶	-12.902
茹	-12.9029
廬	-12.9039
ο	-12.9039
豹	-12.9049
ぅ	-12.9049
冑	-12.9058
饅	-12.9058
د	-12.9068
珈	-12.9088
ม	-12.9107
菰	-12.9127
晒	-12.9146
竿	-12.9146
彷	-12.9146
桧	-12.9166
僑	-12.9186
櫃	-12.9206
叱	-12.9225
藁	-12.9235
柘	-12.9235
佩	-12.9245
舒	-12.9275
饗	-12.9295
鍬	-12.9295
ρ	-12.9295
ō	-12.9355
憤	-12.9364
柊	-12.9365
鯛	-12.9375
蛙	-12.9395
齊	-12.9395
♂	-12.9405
虔	-12.9415
±	-12.9446
琉	-12.9455
沓	-12.9466
ヱ	-12.9476
凄	-12.9496
ว	-12.9506
琲	-12.9507
篆	-12.9516
陛	-12.9526
斡	-12.9537
偲	-12.9537
駕	-12.9547
楡	-12.9547
ù	-12.9547
瑚	-12.9557
皓	-12.9558
壕	-12.9567
筐	-12.9568
ิ	-12.9588
饒	-12.9609
薮	-12.9609
肆	-12.9609
埜	-12.9619
濾	-12.9619
痘	-12.9681
葡	-12.9702
嫉	-12.9712
迄	-12.9743
□	-12.9754
衍	-12.9764
竈	-12.9785
掟	-12.9785
稙	-12.9795
苻	-12.9795
蜘	-12.9795
樂	-12.9795
羨	-12.9806
腋	-12.9816
閔	-12.9837
當	-12.9848
涅	-12.9858
廈	-12.9869
痩	-12.988
ت	-12.988
槃	-12.9922
糟	-12.9933
戌	-12.9943
煥	-12.9964
芒	-12.9964
鑽	-12.9986
리	-12.9986
寨	-13.0018
咬	-13.0028
ี	-13.0071
蛛	-13.0072
喋	-13.0093
邵	-13.0115
圃	-13.0136
煩	-13.0158
ゐ	-13.0169
蓑	-13.0191
賤	-13.0202
箔	-13.0234
稗	-13.0235
禮	-13.0235
寶	-13.0235
桝	-13.0246
ゝ	-13.0289
П	-13.0323
樟	-13.0334
ی	-13.0345
瓊	-13.0355
椒	-13.0356
訃	-13.0356
祁	-13.0367
霍	-13.04
聾	-13.0423
箸	-13.0445
瀕	-13.0456
桔	-13.0456
滸	-13.0467
漣	-13.0501
滬	-13.0524
嗚	-13.0535
φ	-13.0535
ι	-13.0546
鞠	-13.0557
ق	-13.0557
弊	-13.0568
鶯	-13.0569
鮭	-13.058
®	-13.058
爛	-13.058
В	-13.058
侮	-13.0591
拷	-13.0602
槙	-13.0603
靱	-13.0671
覗	-13.0682
窃	-13.0694
顆	-13.0705
疋	-13.0705
鞆	-13.074
鷗	-13.074
曝	-13.0751
距	-13.0762
禹	-13.0797
鉤	-13.0809
蝕	-13.0821
緻	-13.0832
穿	-13.0832
厥	-13.0843
臀	-13.0855
裡	-13.0879
弄	-13.089
ω	-13.0891
焚	-13.0902
碗	-13.0914
澳	-13.0914
τ	-13.0937
攘	-13.096
ゑ	-13.0961
鏑	-13.0973
鉉	-13.0984
ぉ	-13.1032
渭	-13.1067
η	-13.1103
倖	-13.1127
毫	-13.1139
箚	-13.1151
釉	-13.1163
斥	-13.1223
餡	-13.1223
瞑	-13.1223
閩	-13.1235
什	-13.1259
醜	-13.1296
盈	-13.1296
艤	-13.1296
蕪	-13.1369
惇	-13.1369
賽	-13.1369
萄	-13.1369
æ	-13.1382
圀	-13.1394
ē	-13.1394
屠	-13.1394
讀	-13.1406
崑	-13.1431
冪	-13.1431
垢	-13.1443
撲	-13.1457
姥	-13.1493
穎	-13.153
竺	-13.153
鐸	-13.153
蟻	-13.1543
阜	-13.1567
ì	-13.1593
Á	-13.1593
聰	-13.1605
隴	-13.1605
ล	-13.1618
倹	-13.163
嗅	-13.163
Ö	-13.163
籾	-13.1643
匝	-13.1643
蚊	-13.1656
汀	-13.1668
र	-13.1668
繍	-13.1681
Š	-13.1693
繭	-13.1719
鴎	-13.1744
謂	-13.1757
嘔	-13.1757
灼	-13.177
θ	-13.177
撒	-13.1795
纂	-13.1802
鰓	-13.1808
»	-13.1808
«	-13.1808
媚	-13.1833
่	-13.1834
洒	-13.1846
喘	-13.1847
箋	-13.1859
杷	-13.1859
壷	-13.1885
甑	-13.1885
煽	-13.1898
瘤	-13.1911
蒜	-13.1911
帛	-13.1937
ş	-13.195
ž	-13.1976
س	-13.1989
瑳	-13.2015
х	-13.2015
詫	-13.2041
總	-13.2041
贄	-13.208
伺	-13.208
繰	-13.2093
κ	-13.2107
ă	-13.2107
ท	-13.212
ς	-13.212
吠	-13.2146
竇	-13.216
Б	-13.2174
斤	-13.2187
邨	-13.2227
遁	-13.224
賣	-13.224
秤	-13.2267
僭	-13.228
脛	-13.2294
筈	-13.2307
頒	-13.2334
ð	-13.2334
汾	-13.2347
泄	-13.2348
衞	-13.2348
硯	-13.2361
颯	-13.2361
忽	-13.2375
莱	-13.2375
悌	-13.2375
做	-13.2375
樊	-13.2388
簾	-13.2388
蝉	-13.2415
栞	-13.2416
你	-13.2416
絃	-13.2429
咎	-13.2442
拭	-13.2443
蓼	-13.247
楔	-13.247
抒	-13.247
菟	-13.2484
裟	-13.2525
侃	-13.2525
्	-13.2539
怡	-13.2553
礪	-13.2553
ï	-13.2567
ě	-13.2608
浚	-13.2622
彪	-13.2636
◎	-13.2664
遜	-13.2691
冤	-13.2691
禽	-13.2691
哥	-13.2705
迪	-13.2719
炸	-13.2762
托	-13.2776
膿	-13.279
餃	-13.279
晟	-13.2832
Č	-13.2832
膀	-13.2861
瀑	-13.2861
Δ	-13.2861
鎬	-13.2875
◆	-13.2875
ò	-13.2904
漿	-13.2918
罵	-13.2946
瓢	-13.2947
虻	-13.2947
兗	-13.2975
ต	-13.2975
苛	-13.2989
祗	-13.3019
奢	-13.3033
鹵	-13.3033
巷	-13.3048
癸	-13.3077
禿	-13.3106
澪	-13.3106
泗	-13.312
兒	-13.315
贅	-13.3164
拙	-13.3179
雉	-13.3179
訣	-13.3194
尭	-13.3208
頚	-13.3223
璽	-13.3223
錘	-13.3238
枇	-13.3282
攣	-13.3312
凧	-13.3327
粥	-13.3327
ý	-13.3342
莞	-13.3357
邯	-13.3372
槐	-13.3372
Н	-13.3402
揶	-13.3447
檗	-13.3447
奎	-13.3447
恕	-13.3462
驃	-13.3462
宥	-13.3462
洩	-13.3477
Р	-13.3493
讒	-13.3507
ц	-13.3508
訊	-13.3523
號	-13.3523
衷	-13.3538
峴	-13.3538
伎	-13.3553
痙	-13.3569
錆	-13.3569
拼	-13.3569
揄	-13.3584
掻	-13.3584
Д	-13.3599
蒐	-13.3615
О	-13.3615
攀	-13.363
김	-13.3676
禾	-13.3676
莽	-13.3676
燦	-13.3692
┣	-13.3692
蟄	-13.3707
้	-13.3707
́	-13.3707
Т	-13.3707
洙	-13.3723
斌	-13.3738
掩	-13.3754
의	-13.3785
蜷	-13.38
鈑	-13.3801
瀞	-13.3816
秉	-13.3832
髷	-13.3832
滄	-13.3832
俯	-13.3832
พ	-13.3863
份	-13.3863
崙	-13.3879
鱒	-13.3895
ห	-13.391
套	-13.3926
瑜	-13.3926
慄	-13.3927
ة	-13.3942
聲	-13.3958
剌	-13.3974
บ	-13.3974
ด	-13.3974
雙	-13.3974
迭	-13.4005
荀	-13.4006
并	-13.4006
î	-13.4006
柯	-13.4022
涯	-13.4029
ุ	-13.4054
黔	-13.4054
丕	-13.4086
И	-13.4086
昴	-13.4086
炳	-13.4102
燿	-13.4102
訶	-13.4118
琅	-13.4118
袈	-13.4134
狄	-13.4134
萎	-13.415
挾	-13.4151
鈔	-13.4167
洸	-13.4167
頴	-13.4199
溥	-13.4232
碇	-13.4248
睿	-13.4265
Ω	-13.4314
禧	-13.4347
鏃	-13.4363
兪	-13.4396
闍	-13.443
枡	-13.443
屍	-13.443
唾	-13.4463
蕩	-13.4463
躯	-13.4463
Ø	-13.4463
煬	-13.4479
疱	-13.448
卦	-13.448
亦	-13.4497
輜	-13.4497
巖	-13.4513
轍	-13.453
耿	-13.4547
ح	-13.4564
傀	-13.458
疇	-13.4598
畏	-13.4631
啄	-13.4632
熹	-13.4632
絨	-13.4665
捏	-13.4682
Г	-13.4683
誼	-13.47
彿	-13.47
鋪	-13.4717
碕	-13.4734
嵌	-13.4751
`	-13.4751
嬬	-13.4768
鯱	-13.4768
÷	-13.4769
耽	-13.4785
誦	-13.4786
◯	-13.4803
械	-13.4814
畢	-13.482
鄴	-13.482
蕾	-13.482
儡	-13.4855
杣	-13.4855
鳶	-13.4855
琥	-13.4855
사	-13.4855
熾	-13.489
ค	-13.489
ه	-13.4942
肛	-13.4959
ج	-13.496
箭	-13.496
笏	-13.4994
羌	-13.5012
霖	-13.503
楷	-13.503
↑	-13.5048
賂	-13.5083
唖	-13.5083
桿	-13.5084
贋	-13.5101
莢	-13.5119
礦	-13.5119
臺	-13.5155
珀	-13.5173
幇	-13.5173
潁	-13.519
呆	-13.5226
燐	-13.5227
蠣	-13.5227
邢	-13.5263
箪	-13.5281
椀	-13.5281
甦	-13.5299
尤	-13.5299
掠	-13.5317
鰺	-13.5317
ш	-13.5317
燭	-13.5354
欅	-13.5354
鴉	-13.5391
轢	-13.5408
咳	-13.5409
⁄	-13.5409
栢	-13.5427
ع	-13.5427
亞	-13.5446
釐	-13.5482
茗	-13.5483
沂	-13.5483
茸	-13.5501
晨	-13.5501
佼	-13.5501
傲	-13.5519
贖	-13.5556
旱	-13.5557
坤	-13.5557
糊	-13.5575
筏	-13.5594
囁	-13.5594
і	-13.5594
嶌	-13.5613
Å	-13.5613
Ü	-13.5613
撥	-13.5631
鄒	-13.5706
孚	-13.5707
貪	-13.5726
昊	-13.5726
疼	-13.5745
瑤	-13.5745
叟	-13.5764
拮	-13.5764
瑪	-13.5764
鞄	-13.5764
ə	-13.5764
焔	-13.5802
亢	-13.5821
簗	-13.584
螢	-13.584
麾	-13.5917
晁	-13.5917
瘡	-13.5917
์	-13.5917
ك	-13.5937
≒	-13.5976
苺	-13.5976
翟	-13.6014
Λ	-13.6015
拗	-13.6033
壩	-13.6034
偈	-13.6093
จ	-13.6112
ถ	-13.6151
棠	-13.6172
奕	-13.6172
娥	-13.6172
哭	-13.6191
蛸	-13.6212
凜	-13.6231
閘	-13.6251
鮑	-13.6291
蘂	-13.6311
粂	-13.6311
揉	-13.6331
靡	-13.6331
剱	-13.6332
葭	-13.6352
冉	-13.6352
ヰ	-13.6372
龐	-13.6392
沫	-13.6392
燻	-13.6392
지	-13.6392
ː	-13.6392
吃	-13.6412
澁	-13.6413
♭	-13.6433
¥	-13.6433
劫	-13.6453
稷	-13.6494
悶	-13.6494
ช	-13.6494
穢	-13.6514
簒	-13.6514
廼	-13.6515
瀾	-13.6515
魃	-13.6535
ˈ	-13.6535
涛	-13.6556
綸	-13.6556
翊	-13.6576
ζ	-13.6576
鵠	-13.6576
棗	-13.6576
ř	-13.6597
槨	-13.6617
弛	-13.6617
鄲	-13.6617
捗	-13.6618
躬	-13.6618
咄	-13.6638
י	-13.6638
ف	-13.6638
ж	-13.6659
◇	-13.6659
逍	-13.6659
戮	-13.6701
帷	-13.6701
訥	-13.6721
篁	-13.6722
蟲	-13.6722
ะ	-13.6785
躰	-13.6785
臧	-13.6806
漳	-13.6806
酋	-13.6806
┓	-13.6806
Я	-13.6827
♯	-13.6827
盞	-13.6869
辣	-13.6891
悉	-13.6912
涵	-13.6933
་	-13.6934
伶	-13.6955
酌	-13.6976
蒴	-13.6997
晏	-13.6998
邁	-13.7019
椙	-13.7041
정	-13.7106
淋	-13.7106
眩	-13.7106
晧	-13.7106
黛	-13.7128
贛	-13.715
舛	-13.715
대	-13.7193
匯	-13.7194
筧	-13.7215
牒	-13.7236
冲	-13.7237
葯	-13.7258
歿	-13.726
淺	-13.726
擾	-13.7281
捲	-13.7281
銑	-13.7281
拿	-13.7282
恪	-13.7304
≠	-13.7304
脾	-13.7304
卍	-13.7326
한	-13.7326
臆	-13.7348
羹	-13.7348
臘	-13.7348
아	-13.7348
庾	-13.737
檻	-13.7371
褐	-13.7412
錮	-13.7415
懺	-13.7415
笙	-13.7416
僉	-13.7437
祟	-13.7438
ń	-13.7438
幟	-13.746
廖	-13.746
ர	-13.746
∈	-13.7461
碍	-13.7483
鵄	-13.7506
Ž	-13.7506
逼	-13.7528
經	-13.7528
絲	-13.7528
茲	-13.7528
貿	-13.7551
艾	-13.7551
漉	-13.7551
已	-13.7574
芬	-13.7574
戍	-13.7574
毬	-13.7597
瑩	-13.7597
饌	-13.762
薊	-13.7643
菫	-13.7643
諌	-13.7665
匐	-13.7665
肴	-13.7666
砧	-13.7688
沌	-13.7688
鰻	-13.7688
弩	-13.7711
慨	-13.7711
鎚	-13.7712
凉	-13.7735
χ	-13.7735
燮	-13.7781
錨	-13.7781
繚	-13.7781
葱	-13.7804
襖	-13.7828
曺	-13.7851
茄	-13.7851
蛾	-13.7851
棍	-13.7875
羲	-13.7898
潼	-13.7898
徨	-13.7898
厭	-13.7898
驪	-13.7898
鶉	-13.7898
潴	-13.7898
郢	-13.7922
苓	-13.7922
詢	-13.7945
咀	-13.7945
嚇	-13.7945
ி	-13.7969
艘	-13.7992
У	-13.7993
磔	-13.8016
猥	-13.8017
糀	-13.8017
蜃	-13.8041
煤	-13.8112
焙	-13.8113
乎	-13.8113
︎	-13.8137
鍮	-13.8161
怯	-13.8185
澗	-13.8185
捌	-13.8185
甸	-13.8185
Л	-13.8185
ไ	-13.8209
澎	-13.8209
蛹	-13.8209
Ζ	-13.8209
ś	-13.8209
穹	-13.8209
Σ	-13.8234
க	-13.8234
娃	-13.8234
奚	-13.8258
旁	-13.8258
齧	-13.8258
姐	-13.8258
殲	-13.8282
匍	-13.8282
翫	-13.8307
杓	-13.8331
飫	-13.8356
朧	-13.8356
ட	-13.8356
黌	-13.838
ش	-13.8381
厲	-13.8405
窄	-13.8406
綽	-13.843
기	-13.8431
箒	-13.8455
滉	-13.8455
嘲	-13.848
渝	-13.848
淘	-13.853
畦	-13.853
ம	-13.853
厘	-13.8555
誹	-13.8555
嵜	-13.8555
栂	-13.8555
鈞	-13.8581
關	-13.8581
다	-13.8581
鬚	-13.8606
將	-13.8606
緬	-13.8606
顛	-13.8606
ป	-13.8631
圖	-13.8631
厦	-13.8631
肱	-13.8657
循	-13.8681
涇	-13.8681
弗	-13.8682
杢	-13.8707
鵡	-13.8707
剪	-13.8707
ф	-13.8708
瀛	-13.8733
鬘	-13.8758
拌	-13.8759
楳	-13.8759
ğ	-13.8759
櫂	-13.8759
謗	-13.8784
ǎ	-13.8785
न	-13.8785
渫	-13.881
椰	-13.881
瞼	-13.8836
婢	-13.8836
弉	-13.8836
聳	-13.8888
辟	-13.8888
較	-13.8913
昶	-13.8914
卉	-13.8914
袂	-13.8914
體	-13.8914
ʻ	-13.8914
逵	-13.894
스	-13.894
舍	-13.8966
簸	-13.8993
棣	-13.9018
↓	-13.9019
鄂	-13.9045
赳	-13.9072
樓	-13.9072
柩	-13.9072
滕	-13.9098
동	-13.9098
舅	-13.9125
鋏	-13.9125
嚆	-13.9125
ę	-13.9125
忻	-13.9125
樅	-13.9151
澱	-13.9151
瞻	-13.9152
翡	-13.9152
繹	-13.9178
祺	-13.9178
鴫	-13.9178
수	-13.9205
„	-13.9205
紆	-13.9232
攪	-13.9232
鋤	-13.9232
宸	-13.9232
柾	-13.9232
偃	-13.9232
塹	-13.9259
謨	-13.9259
礒	-13.9259
諺	-13.9286
笥	-13.9286
輻	-13.934
嚥	-13.934
υ	-13.934
匁	-13.9367
म	-13.9367
謬	-13.9395
踵	-13.9395
虢	-13.9395
臍	-13.9395
毯	-13.9422
瑶	-13.9422
沛	-13.9422
橈	-13.945
掬	-13.9477
愍	-13.9477
莒	-13.9477
餘	-13.9477
籃	-13.9477
聶	-13.9477
些	-13.9504
夙	-13.9504
埃	-13.9505
蘊	-13.9532
≪	-13.9533
鰹	-13.9533
愕	-13.956
紬	-13.956
ल	-13.956
杞	-13.9616
窈	-13.9644
濮	-13.9672
駱	-13.9672
腓	-13.9672
琦	-13.9699
゚	-13.97
แ	-13.9729
幀	-13.9729
灣	-13.9729
瑯	-13.9729
┳	-13.9757
娩	-13.9814
闕	-13.9842
↔	-13.9842
ו	-13.99
菁	-13.9928
炮	-13.9957
ी	-13.9958
閭	-14.0044
剋	-14.0074
鉦	-14.0103
訟	-14.0103
舩	-14.0103
籟	-14.0133
ṭ	-14.0133
俘	-14.0162
〆	-14.0162
瀉	-14.0162
♀	-14.0162
ى	-14.0162
ि	-14.0162
篋	-14.0192
奠	-14.0192
稠	-14.0192
த	-14.0192
冰	-14.0222
爲	-14.0251
眷	-14.0251
敖	-14.0251
卡	-14.0251
가	-14.0281
ு	-14.0281
卷	-14.0281
≫	-14.0311
獏	-14.0311
원	-14.0311
践	-14.0337
撹	-14.0341
軋	-14.0341
梟	-14.0341
菲	-14.0341
涸	-14.0341
鯰	-14.0371
櫟	-14.0401
┫	-14.0401
甌	-14.0431
烹	-14.0432
發	-14.0432
僖	-14.0432
俄	-14.0462
瑾	-14.0523
霸	-14.0523
閾	-14.0523
ப	-14.0523
婉	-14.0523
賁	-14.0523
蟠	-14.0554
đ	-14.0554
영	-14.0554
粤	-14.0554
髏	-14.0584
敞	-14.0585
क	-14.0585
전	-14.0585
ک	-14.0616
捺	-14.0646
자	-14.0646
ա	-14.0708
蝠	-14.0708
昱	-14.0739
藺	-14.074
髑	-14.074
鴛	-14.074
甄	-14.074
э	-14.0771
辯	-14.0771
槿	-14.0771
珉	-14.0802
孕	-14.0803
郞	-14.0833
나	-14.0834
蒋	-14.0866
濬	-14.0866
戀	-14.0866
고	-14.0866
燁	-14.0897
洮	-14.0897
笈	-14.0897
沁	-14.0898
儁	-14.0898
詹	-14.0928
奸	-14.0929
戰	-14.0929
鑼	-14.0929
竟	-14.0961
驤	-14.0961
櫨	-14.0961
स	-14.0961
匣	-14.0962
懋	-14.0962
憚	-14.0993
粲	-14.0993
인	-14.0993
瞥	-14.0994
掖	-14.1026
성	-14.1026
竄	-14.1026
주	-14.1026
倦	-14.1058
恢	-14.1058
ő	-14.1058
서	-14.1058
毗	-14.1058
ா	-14.109
俠	-14.109
≤	-14.109
郝	-14.109
痒	-14.1122
媽	-14.1123
筵	-14.1155
汶	-14.1155
曄	-14.1187
菴	-14.1188
โ	-14.1188
일	-14.1221
攷	-14.1221
皖	-14.1253
하	-14.1254
ი	-14.1254
對	-14.1254
諷	-14.1286
繡	-14.1286
鮒	-14.1286
蜻	-14.1287
衾	-14.1287
龔	-14.1319
奘	-14.132
曉	-14.132
芮	-14.1353
襷	-14.1353
鍔	-14.1353
蛯	-14.1353
ą	-14.1353
龕	-14.1385
崋	-14.1386
鮨	-14.1386
毓	-14.1387
娑	-14.1419
仍	-14.142
旻	-14.142
ა	-14.142
臂	-14.1453
撞	-14.1453
旌	-14.1453
우	-14.1453
谿	-14.1454
睨	-14.1487
彝	-14.1487
仄	-14.1487
ข	-14.1487
鐙	-14.1487
어	-14.1487
斛	-14.1487
權	-14.1521
彅	-14.1554
劔	-14.1555
ศ	-14.1555
墺	-14.1588
خ	-14.1589
甜	-14.1589
신	-14.1623
민	-14.1623
戟	-14.1623
隗	-14.1657
寳	-14.1657
畫	-14.1657
ز	-14.1657
Ç	-14.1691
시	-14.1726
脹	-14.1726
ż	-14.1726
ר	-14.1726
嬌	-14.176
攫	-14.1795
辨	-14.1795
З	-14.1795
椚	-14.1795
ю	-14.1795
乖	-14.183
ǐ	-14.183
癬	-14.1865
洵	-14.1865
衢	-14.1865
釋	-14.19
孜	-14.1935
鋺	-14.1935
瞰	-14.1935
磊	-14.1935
도	-14.1936
œ	-14.1971
戔	-14.2006
儚	-14.2006
荃	-14.2006
假	-14.2041
醇	-14.2042
榑	-14.2042
棹	-14.2042
ư	-14.2042
絳	-14.2042
衿	-14.2077
坏	-14.2077
炯	-14.2077
َ	-14.2077
逹	-14.2078
鋲	-14.2113
涿	-14.2113
蛉	-14.2113
諍	-14.2149
吼	-14.2149
〃	-14.2149
त	-14.2149
褚	-14.2185
斂	-14.2185
戈	-14.2185
紇	-14.2221
驍	-14.2221
們	-14.2221
槎	-14.2222
위	-14.2222
譙	-14.2222
躊	-14.2294
氐	-14.2294
İ	-14.2294
熈	-14.2331
樵	-14.2331
Đ	-14.2331
欒	-14.2367
躇	-14.2367
ู	-14.2368
Ä	-14.2368
杰	-14.2368
濵	-14.2441
ヮ	-14.2442
咩	-14.2478
倪	-14.2478
憾	-14.2479
鄱	-14.2479
∀	-14.2479
筰	-14.2479
瀏	-14.2479
व	-14.2479
誣	-14.2516
蟇	-14.2516
兌	-14.2516
拱	-14.2516
국	-14.2516
喀	-14.2553
蝙	-14.2553
楮	-14.2553
翳	-14.2554
寬	-14.2591
沐	-14.2591
邳	-14.2591
闊	-14.2591
萠	-14.2591
勳	-14.2591
檣	-14.2591
犍	-14.2591
无	-14.2591
處	-14.2591
진	-14.2591
燧	-14.2629
猴	-14.2629
ά	-14.2629
廂	-14.2666
覺	-14.2667
泪	-14.2667
┗	-14.2705
椛	-14.2705
沅	-14.2743
鵞	-14.2743
प	-14.2743
徊	-14.2781
仗	-14.2781
碼	-14.2781
嫩	-14.2781
鉅	-14.282
卞	-14.282
娜	-14.282
彊	-14.2858
沽	-14.2858
竣	-14.4536
祉	-15.0324
諏	-15.2607
膚	-15.4279
逮	-16.2712
胱	-17.7001
雰	-17.7001
